<s>
<pad>
</s>
<unk>
,
.
▁
s
▁de
-
▁a
a
:
e
i
▁(
)
▁i
t
n
▁-
▁la
▁en
▁in
▁na
'
’
...
▁e
▁на
。
o
?
en
u
▁и
▁o
、
!
m
▁se
▁que
r
的
▁"
▁di
▁–
▁to
▁da
▁в
▁un
▁“
y
▁do
▁je
er
▁sa
"
а
▁og
▁за
▁A
”
/
▁و
an
te
▁die
▁the
d
▁er
in
;
▁u
na
▁не
▁si
▁ja
▁za
▁v
▁et
▁is
▁у
da
ne
▁I
▁el
и
es
▁s
k
ni
▁«
▁le
▁l
▁z
▁on
▁at
▁for
ta
е
▁d
у
▁1
re
▁ne
▁på
▁no
▁of
de
▁y
▁du
▁2
▁per
ti
▁yang
▁te
▁para
▁der
▁dan
▁som
et
h
▁med
▁по
м
▁van
(
le
▁с
▁and
▁„
▁3
▁til
ی
l
▁an
la
▁al
ja
▁del
ar
▁w
▁det
li
▁ya
▁:
▁...
の
“
▁ka
no
▁con
▁S
▁po
ka
as
▁me
is
▁und
▁su
»
▁den
z
j
▁om
si
▁ve
▁och
ه
g
ي
▁O
▁har
se
▁av
▁be
▁ar
to
▁5
on
ma
▁ir
).
em
▁por
о
▁es
▁les
▁ki
▁4
ul
▁kan
▁‘
та
ch
ga
▁10
▁il
на
在
ing
it
ra
▁una
▁so
т
us
▁des
▁het
те
ы
▁ku
▁od
­
os
▁op
▁ng
ς
je
▁as
c
▁La
▁E
▁'
▁att
х
я
do
),
▁/
▁pa
ة
を
▁à
p
▁ha
at
ا
▁wa
і
▁af
▁De
▁bir
和
ko
mi
▁2018
]
▁nie
st
ve
nya
了
b
▁M
com
َ
▁vi
▁pe
が
me
A
▁var
▁um
▁के
al
▁che
▁ma
▁—
▁een
S
▁az
ed
▁ko
ny
▁ni
ki
am
н
2
▁6
om
▁va
▁ta
un
▁V
▁ke
й
▁C
▁cu
▁nu
um
ci
ku
lar
▁din
ن
▁mi
▁во
に
то
ce
va
kan
▁man
▁bi
v
▁B
не
▁bo
▁L
▁»
▁K
は
ek
ak
▁U
▁m
▁ang
ke
▁non
▁em
▁Na
是
▁En
ни
▁ال
▁In
▁7
▁os
3
▁ה
lo
▁par
의
▁tu
‘
be
▁bu
▁το
▁com
م
▁ca
▁[
il
но
▁das
▁8
▁می
▁T
▁20
▁los
▁by
▁D
▁á
▁é
ya
D
▁you
ia
▁li
ba
▁zu
▁ce
▁о
ca
▁mai
मा
을
ка
ri
▁В
1
ом
f
▁yn
▁15
▁из
x
▁12
di
ge
í
mo
sa
w
▁met
▁P
▁est
▁No
▁í
C
▁it
▁ist
▁am
▁iz
é
▁У
ng
▁that
ă
▁pas
▁men
_
ը
▁re
tu
▁lo
ju
im
有
▁tak
▁dhe
▁#
이
年
▁k
▁este
ur
▁ei
г
ie
▁pre
에
ir
▁9
▁sem
▁ini
▁ut
人
ِ
▁mit
▁جي
▁ver
▁pri
▁30
ho
▁c
▁pro
▁Se
▁2017
ה
で
ai
▁was
ten
от
jo
中
ov
ro
▁care
go
▁ser
▁eta
▁có
est
д
▁G
ha
▁со
▁au
id
▁como
▁11
▁А
▁ay
ly
nu
▁El
▁N
▁von
▁18
▁và
ли
л
dan
▁của
ла
▁co
den
ndo
▁με
ов
」
mu
不
▁F
▁è
▁im
▁Z
I
▁qui
▁till
B
▁H
大
上
▁las
ُ
▁pour
▁Det
▁là
▁The
▁Vi
el
「
co
▁fra
▁С
sta
▁про
ning
ل
M
ą
za
lik
▁ein
▁ny
▁W
▁Si
ler
▁her
K
▁ad
▁dat
ת
と
▁16
▁sur
▁1.
▁14
4
T
▁&
▁are
▁Die
▁voor
ა
▁R
▁ou
月
我
▁mga
”,
wa
日
▁Le
ти
▁we
▁für
▁auf
▁over
E
ية
с
в
▁n
▁ich
▁dos
ji
nt
▁*
▁ale
▁Po
▁aan
▁م
▁Bu
▁jeg
man
O
▁eller
▁На
▁ra
ment
▁ب
да
▁with
га
▁cho
▁nem
P
一
ok
vi
▁không
ê
du
nin
го
://
은
к
ที่
▁ge
nie
▁13
ً
▁ter
▁?
▁g
▁or
zi
á
▁!
ad
가
▁25
▁To
▁к
▁kaj
ter
▁meg
ма
G
▁Sie
▁17
▁hogy
ze
▁mais
né
▁dari
gi
ш
▁als
▁go
▁ho
".
▁jo
ю
▁24
▁dem
▁ت
▁alle
or
▁nicht
ки
▁itu
ين
▁all
▁0
5
▁my
▁kwa
ban
pa
▁he
▁have
▁•
는
▁ber
po
▁să
▁une
▁son
ben
▁han
▁2016
▁η
▁ته
ik
▁я
ان
▁Du
▁2.
▁uma
▁եւ
”.
▁wat
š
ou
ní
▁(1)
▁Ne
р
▁Di
▁И
▁100
▁oo
▁dans
▁t
▁fi
▁jag
ен
ver
▁nga
ot
der
▁J
lu
▁Ja
ste
▁Za
د
ми
▁За
",
▁can
▁della
▁sich
▁jest
ر
▁50
bo
N
mos
H
▁mu
▁pada
等
▁Je
io
▁छ
ó
ის
他
▁Re
▁dit
▁pod
V
も
▁sau
▁agus
ж
q
ów
L
tar
ž
ش
ig
▁Be
kin
▁b
▁ا
▁dia
▁sin
▁min
ru
▁Al
ina
也
ме
▁một
▁ji
▁Il
▁inte
▁An
oj
▁По
ى
▁this
▁Per
▁eine
6
▁Ma
▁được
ita
▁ga
▁p
au
▁2015
F
▁amb
▁auch
▁ako
▁ali
▁các
س
th
ol
▁Da
▁mo
▁ze
ts
ach
▁your
dir
ska
ty
▁ao
ului
ini
que
▁akan
▁Sa
▁kun
▁©
▁nos
▁21
▁19
▁sy
地
▁uz
▁not
▁mal
▁ba
10
bi
vo
7
▁под
▁”
ú
ä
▁>
bu
hi
@
ren
ий
▁Do
▁alla
tur
des
ся
▁Y
so
▁Un
한
你
▁ob
▁+
▁trong
▁plus
ky
ut
▁Er
▁más
ны
▁στο
▁người
их
cu
▁dar
▁tai
▁egy
sen
▁vir
ele
8
fa
▁x
▁vous
ë
ा
▁não
▁sobre
fi
▁ac
▁3.
ć
ye
以
ista
▁ο
▁22
出
ь
sk
ih
▁ett
are
ат
도
▁2014
要
R
▁ti
men
ı
▁ci
ْ
▁So
U
▁vil
为
[
nde
ч
نا
▁г
▁fa
▁kad
tas
tan
고
п
▁bei
pe
로
sti
ды
▁Не
▁О
ada
▁h
ken
▁sex
▁qu
–
▁23
he
而
▁mar
與
ın
▁Men
▁40
ná
ия
▁els
▁với
ть
▁online
▁ex
ва
han
aj
▁uit
das
де
9
nda
小
▁ju
下
hu
▁skal
`
▁Ka
ado
dos
nak
▁ने
▁mer
▁sig
!!
会
▁entre
ción
ene
▁tra
kar
▁vy
▁Az
ção
zo
su
▁အ
▁kas
uri
▁mas
lla
▁atau
ّ
▁seu
ů
▁Ar
用
nia
▁eu
my
we
net
ll
mente
▁Es
▁kar
▁tot
与
지
ami
ssa
▁X
▁oli
ع
ных
30
都
▁jak
ле
▁video
▁Ko
ske
ά
▁fan
▁Mi
▁bez
▁2013
ine
ах
▁Me
▁saya
や
▁Ta
ло
▁juga
▁will
ks
▁wie
▁ved
lle
&
ę
▁ook
gu
▁parte
ant
▁f
▁mis
▁ez
."
▁ada
▁fel
▁vor
min
▁Pro
».
ez
▁hat
▁up
▁kita
▁ons
▁Li
▁ah
per
▁sunt
ке
ного
▁iyo
by
▁hi
▁·
▁sind
lt
性
ό
·
ال
rea
▁but
▁more
多
▁sam
tor
과
ā
ry
▁from
ber
à
bar
▁ai
▁As
nek
lı
▁post
nih
▁aj
な
から
▁Der
▁Co
▁aus
ή
ers
з
為
好
за
▁2012
ب
▁For
+
▁sie
sz
▁أ
ej
ski
▁hai
»,
ile
leri
▁Pa
子
▁Ke
▁film
▁vai
▁niet
▁ile
ima
ven
ə
ere
▁những
▁tre
▁că
tion
ah
▁oder
=
▁Tu
▁28
し
▁@
J
▁ik
▁ag
新
▁under
▁come
▁26
▁К
▁)
▁sono
jen
▁Ha
▁2011
र
ний
高
▁4.
ei
▁We
可
val
▁upp
▁đã
gen
yo
uje
▁Te
lan
▁blog
▁nas
ко
iz
ist
之
▁dass
▁الله
▁www
▁ri
sel
▁Nu
che
▁Facebook
家
pi
▁М
cha
▁27
▁wir
▁dag
nes
α
▁Ver
б
het
▁[...]
▁thể
▁cum
мо
W
ο
dy
▁Pe
▁Ku
san
ang
▁dig
▁web
▁..
ز
ι
cie
▁maar
də
org
nte
▁tam
▁orang
▁forma
lor
▁bisa
ite
《
мен
▁sen
tik
▁ten
所
sh
▁60
▁để
▁ili
ana
▁unha
기
▁이
ger
dar
ton
▁Я
mas
Z
▁DE
ster
本
tra
▁vel
▁Ki
▁Ni
ге
▁З
▁program
▁He
12
▁2010
▁nuk
лі
▁Б
ala
▁pot
X
▁may
asi
時
者
20
▁jy
ем
▁sal
水
ný
î
▁has
會
nje
С
▁nach
▁ab
!!!
▁anda
lah
▁está
인
▁Man
ii
www
▁Den
les
sko
能
▁ska
▁bij
分
ты
▁ben
》
来
前
▁fer
sin
ν
일
▁bet
▁super
▁zo
ran
rum
ais
▁cha
▁avec
▁dei
▁sub
▁era
▁này
ung
▁bra
▁http
▁ek
▁kom
▁war
▁one
手
tes
*
▁dal
▁như
▁esta
yan
ל
▁pra
▁sua
▁j
nja
▁nur
▁It
ria
▁pred
▁Con
▁chi
▁über
▁just
▁sit
11
og
án
zu
▁about
ý
ud
▁koji
去
ner
rá
son
ida
ła
ari
nom
▁r
▁mig
▁kur
▁dell
▁mag
át
ně
▁29
lari
era
tel
А
ска
▁foi
kon
ł
▁nel
▁Para
▁Да
Y
ata
将
mar
ker
▁Д
▁Jeg
ên
▁time
▁Les
▁San
▁sed
▁(2)
▁fost
▁dating
2018
del
aren
▁%
lig
▁ap
ना
nej
ди
▁Anda
ens
▁gan
iga
ş
land
▁site
pu
ой
後
ic
kom
▁Dr
▁plan
▁Et
▁bạn
▁bat
ns
▁200
zione
vu
▁Mar
▁km
▁pero
▁tem
▁hier
▁wy
名
υ
▁gratis
ali
最
心
tal
▁ee
▁bien
▁auto
▁out
une
tis
▁Google
▁sus
▁Por
18
▁internet
▁us
vis
后
▁cm
az
▁via
ion
▁air
▁Su
▁News
▁they
15
▁noch
▁làm
▁Her
▁Bi
得
▁Ce
dor
▁sama
ส
▁amin
▁nog
▁Ba
▁daha
ной
▁Das
chi
ха
cz
▁delle
tak
▁ani
▁lui
▁hal
▁công
▁ud
ные
다
▁kann
▁2009
ți
▁wird
nik
cia
▁like
▁đến
ati
iti
чи
▁5.
▁về
か
ron
▁had
天
▁khi
▁bar
▁TV
▁door
▁At
▁Pre
ting
▁lại
▁his
▁kuwa
▁sta
・
▁hun
▁tri
met
ð
中国
▁seg
▁nad
ق
è
ale
▁31
▁lang
▁kon
▁inter
ра
▁ole
▁cũng
una
▁Het
že
▁Har
ня
tos
▁raz
nim
▁see
▁kr
var
해
ło
gar
三
gan
▁todo
let
▁kot
len
▁gli
▁kui
ť
ב
▁Т
化
mer
▁pun
ии
▁II
ба
η
外
▁أو
行
“,
▁Home
金
里
▁foto
▁saat
▁Go
力
▁roz
와
▁2008
▁Am
č
生
▁Os
▁haben
น
ف
ля
▁naj
up
想
▁Ca
по
▁net
ـ
▁sont
▁get
ج
▁uu
▁data
▁hay
ab
▁ham
再
▁ở
▁far
tie
▁ro
ica
▁nous
mail
ling
▁pag
▁Is
▁kako
る
▁Ber
):
▁Ci
▁mot
▁samo
vin
▁inn
리
χ
▁Lo
▁Nam
ния
사
▁500
▁ف
ili
vat
▁Ο
res
向
い
vad
▁má
elle
▁hy
▁aku
自
▁cada
▁kung
▁tik
市
▁sẽ
▁tur
▁Ali
▁satu
tek
tus
▁І
op
▁pi
ire
法
ţi
rik
▁pie
▁dy
▁On
來
시
▁tempo
▁sé
스
▁if
rat
▁Jo
▁nam
mis
ша
ate
事
▁beste
ille
van
ser
ный
▁bil
▁todos
▁tan
ram
od
▁=
▁Ge
▁Allah
nd
▁iki
어
▁kami
▁də
inen
▁jou
▁आ
▁ed
▁bila
ст
mat
inn
▁mà
ная
▁uns
▁einer
uar
▁apa
fe
▁aber
▁vo
nos
és
uk
▁80
▁vào
ið
▁tại
▁هر
line
са
▁car
▁tôi
▁soo
▁quan
ac
ret
▁social
자
▁fin
con
山
▁35
▁đó
mm
ม
pen
ën
수
▁ty
入
ो
ende
ก
▁ste
▁6.
▁Dan
▁Ho
▁voi
서
▁mir
illa
či
▁don
би
▁contra
ét
~
于
▁oma
tta
tin
té
▁aby
sal
О
▁Pri
ation
nar
▁dels
iya
во
mak
▁Op
將
▁شد
▁phải
lat
kat
▁sempre
▁pat
▁meer
▁opp
nych
▁blir
the
▁bli
▁casa
ца
▁Hotel
ě
В
▁god
▁New
24
▁70
▁hem
▁their
М
▁Od
▁vez
▁what
▁từ
▁Ya
▁Ti
▁ano
▁Jag
▁sve
▁Om
yi
▁zum
0
▁Par
▁Ang
▁bin
▁Q
lin
los
▁tar
af
cy
▁mes
ové
▁she
其
imo
nen
นี้
sha
▁ye
pl
▁sú
К
た
▁kao
▁П
▁nav
▁selv
kor
▁vida
ila
▁bagi
ר
▁Про
▁000
▁our
▁lain
▁prin
ties
▁media
—
wi
▁qo
▁nhà
▁ó
тар
道
▁xa
▁Bo
▁tym
▁bis
dal
▁đi
kas
▁Ak
for
全
ona
▁tin
▁trên
ft
ity
▁tako
▁Ich
16
▁vara
17
回
▁đầu
▁gu
▁any
par
▁Mo
ύ
▁bị
▁€
ide
eg
▁hàng
▁90
las
ara
▁lan
ò
ent
於
ей
▁pak
▁chỉ
50
▁ama
▁andre
ert
▁tout
▁helt
tam
sı
▁Dar
ค
dır
▁học
▁Han
ник
▁sự
......
▁Ra
tum
ин
▁nhiều
▁Tak
дар
▁mere
文
▁word
ib
▁بن
ė
▁face
▁Е
▁thì
sten
ден
▁You
▁ble
25
▁mat
kel
.....
14
▁nak
ck
kal
▁jako
enie
owe
vel
花
sku
imi
num
▁Ve
▁worden
mento
▁پاکستان
▁động
▁smo
比
▁dette
sse
▁ع
度
tă
ici
▁bara
ani
Д
ap
Б
▁let
ira
お
▁pu
▁solo
說
▁alt
▁sonra
če
▁tema
▁My
mus
部
▁hari
▁pan
美
jem
特
nas
ble
▁top
▁Internet
▁maka
▁mon
▁300
▁denne
那
▁nhất
▁Hi
▁fram
mp
rin
▁45
gel
13
iem
▁most
▁there
се
주
▁2007
▁Video
▁Г
り
ков
方
▁года
nog
ras
ag
▁final
無
nis
▁volt
▁oss
▁euro
ль
▁mil
由
▁mata
bil
▁deg
▁isang
▁nei
isi
La
tzen
ante
▁Kan
▁việc
Q
ç
>
▁vol
ရ
▁т
én
mal
▁who
▁Ek
▁ind
aan
▁ning
▁Mu
jas
▁amet
ega
海
▁votre
▁mehr
▁real
▁Em
▁tal
▁Ro
ω
μ
▁ur
▁thành
rit
sto
▁dụng
enia
▁(3)
▁32
▁Um
▁Post
起
▁qua
成
▁said
▁would
א
▁been
kov
▁mod
▁hiện
zioni
stra
▁;
▁kes
ži
red
▁Online
ง
光
tir
ви
leg
▁prima
重
▁part
ato
▁cara
▁dis
40
nem
▁Во
▁also
bra
長
▁bude
bat
ด
ring
لا
dik
▁gran
▁them
▁Ви
▁(1
ล
▁jau
▁7.
▁→
jan
▁mm
gal
▁nói
ade
▁anti
fer
▁parti
面
π
ון
able
ama
▁Med
▁út
▁vid
nosti
▁sport
▁سر
▁Ga
정
▁sul
▁St
“.
▁pode
ova
▁mange
斯
tre
▁hele
▁motor
▁cel
く
▁định
▁năm
▁tid
▁yr
and
▁Nie
hat
▁Mae
ова
19
▁Ny
▁wel
?"
元
tro
▁zur
ika
mine
▁wenn
▁best
▁problem
ça
身
▁aux
kur
ës
▁faire
▁Ri
▁محمد
ál
ice
tem
ő
ito
▁sein
▁Ein
▁Bir
▁mor
▁Ter
先
▁vad
▁Van
▁Cu
▁info
▁yo
車
▁Mas
▁Dit
të
장
て
▁gi
▁bor
▁hotel
mme
dur
▁etc
国
tele
▁questo
▁số
issa
대
vy
▁test
din
▁Fa
hy
dra
▁nước
ksi
ša
▁É
▁dolor
tter
▁bare
▁some
▁thế
tt
▁ngày
▁tek
▁Pi
lang
idade
ise
▁NA
▁hos
ego
▁stor
▁bilan
▁mình
cho
▁nhân
著
▁moment
▁len
▁lub
τε
▁한
vor
▁cui
nost
ige
▁ru
▁sol
ua
21
ismo
zen
Г
ś
fu
▁link
▁which
ש
ves
▁kat
eve
tte
路
bit
rà
lim
);
▁anos
▁Ad
ח
▁yeni
บ
게
▁Ab
У
nika
▁ele
▁All
nou
pas
Т
ura
同
▁pela
至
▁form
▁anak
▁chính
▁ná
pan
qui
内
▁Og
만
ż
nud
▁grande
if
▁hindi
▁fait
二
erne
▁gibi
rt
ε
▁etter
▁nuo
wan
▁mund
▁إ
▁kell
iu
ás
▁8.
kk
hen
世界
아
τα
▁Este
▁when
ví
sch
tha
ec
▁chat
ح
▁make
▁tas
▁150
▁Bar
დ
▁Ik
lega
2017
▁habe
▁oor
▁masa
tet
ย
inin
br
▁mobil
▁uno
作
▁skulle
台
성
ги
▁ont
car
zy
▁desde
▁Com
ía
▁Ji
▁This
▁2006
nica
▁sme
ар
▁model
拉
▁kadar
正
▁ing
sam
▁mundo
▁́
▁By
▁Ju
▁Wa
▁tha
▁YA
如
▁Var
物
uz
▁hor
▁súa
▁quod
nega
▁res
her
▁Wir
ay
▁email
خ
▁Jan
▁Or
▁Lu
ex
ต
▁personal
▁LA
▁ovat
▁Sam
▁الأ
▁col
rak
än
lí
▁Im
yn
教育
ian
ท
店
主
▁qe
ス
ies
dia
▁durante
상
▁people
▁ann
ły
jos
▁ses
▁dé
jar
▁ev
æ
▁quando
ев
ure
лар
▁pla
▁01
▁pasi
▁შე
▁Ben
ία
bor
▁Kar
▁bal
▁tro
ре
▁God
θ
gy
▁ned
라
▁kata
ip
cer
▁want
▁person
▁id
ando
ü
時間
老
▁Va
pro
via
area
nice
har
走
▁й
▁durch
▁bak
ket
▁sto
▁moet
sia
▁lu
▁hon
▁pelo
▁bol
ši
加
tä
▁And
나
▁than
▁val
ست
tud
德
set
▁baru
▁Па
▁mana
▁gre
白
▁Iz
cio
ob
口
▁new
ста
taan
▁ak
▁gia
▁bio
▁còn
▁esse
▁hand
▁ré
ρ
▁cap
▁jos
▁were
ojn
▁Ob
▁zi
uta
▁land
▁biti
▁100%
100
▁noi
▁Pu
▁wil
▁end
▁Á
▁dr
▁9.
bal
▁hulle
▁Mit
원
▁2000
▁Н
och
ու
fo
安
▁hur
從
日本
▁muy
▁pm
▁momento
tura
▁Mai
ela
nti
▁eru
ime
▁nou
▁Malaysia
եր
▁Š
nut
▁Twitter
end
wo
부
感
▁anh
ados
vet
この
▁ora
▁Sex
▁total
区
開
▁tom
sie
one
ilor
▁mới
▁normal
▁2019
▁how
▁jam
▁mest
▁base
▁$
▁ere
▁Mal
ія
▁ok
화
ros
det
lag
▁gar
ē
ted
til
etan
ovi
unk
ris
ão
eren
▁place
▁here
▁「
▁Kon
原
▁vill
ča
▁Fi
▁dann
rar
lé
▁nó
ор
▁hơn
▁know
mes
▁neu
lam
ità
▁pol
lv
▁san
▁Islam
▁savo
ře
品
▁Los
▁porno
▁comme
▁ή
23
▁Из
▁EU
ová
▁mare
▁seo
▁Ch
機
无
vit
▁schon
▁Việt
tul
shi
27
tti
ır
▁Windows
▁Non
전
定
ս
vol
월
▁Ze
▁nye
▁polo
▁other
▁theo
▁modo
larda
get
mon
▁â
xa
▁Indonesia
位
▁lai
▁Pas
▁immer
▁nên
▁sinh
idad
far
dom
▁giá
av
▁fe
▁hợp
П
ciones
tori
dis
▁waar
▁baik
▁cả
ius
▁public
ott
▁thực
▁kam
▁08
ал
长
▁Film
局
▁even
lə
▁autor
▁zaman
▁tuo
▁vin
▁ch
▁pos
▁Α
▁mult
▁elit
▁need
ил
ป
▁ana
头
▁día
28
▁put
▁sana
王
!"
西
▁09
万
heid
▁trans
vá
▁lý
▁Hy
利
通
ido
▁33
ham
▁siden
▁way
▁programa
nju
ano
gas
明
ori
miz
cm
▁into
tat
▁¿
adi
▁Euro
▁nào
林
lara
▁bon
%
讓
▁Android
▁پ
nce
The
php
▁cách
art
▁lite
rah
gr
▁finns
▁rất
▁Kor
▁(4)
▁harus
ár
▁Europa
▁https
▁kir
▁Car
▁ре
iva
合
lige
克
ф
▁sản
▁unter
▁Ut
Н
tri
ая
소
▁local
▁Web
▁vie
▁chúng
mit
τ
▁مي
▁saja
22
endo
ый
лер
見
ong
▁biết
З
▁app
dd
▁ante
use
진
▁start
ero
▁36
ร
ino
maan
26
▁him
▁mich
▁Со
▁acest
学
▁Pra
▁gì
bel
▁pris
▁10.
▁điều
▁pola
▁wieder
▁2005
vas
▁400
▁pr
ix
lis
▁mint
ী
▁free
ët
σ
nú
hr
▁yer
sar
▁jej
▁tanto
▁problema
▁temps
▁só
ül
▁nr
ación
anta
四
▁mid
ās
▁nun
ved
▁good
▁Apple
2016
ган
bre
из
▁cookies
▁nya
頭
▁barn
▁Ur
▁Met
▁saj
太
▁2018.
In
▁ger
동
▁cele
nici
orum
▁got
kt
▁website
isti
近
ée
▁Can
liga
▁extra
▁alles
ว
pun
▁vos
▁kor
ら
神
开
Е
ges
▁Copyright
▁weer
▁vas
▁thời
ede
▁nag
hal
▁pel
ett
war
eri
ering
▁--
▁Min
▁vet
▁kal
rd
ák
區
▁Fe
bus
▁gra
▁thông
jer
▁Una
內
Se
owy
29
ef
eta
osa
▁Sed
▁rad
jet
▁Tur
면
▁tá
▁nhưng
το
:“
▁sun
▁If
▁Super
inu
▁Pen
▁kama
▁ג
▁aki
▁fast
▁nec
ré
비
文化
500
ibus
int
▁iPhone
使
ley
rs
ور
pad
eni
▁lei
▁ilk
ovat
▁tr
▁tipo
▁cơ
▁Sen
stu
▁ك
▁1-
И
▁haar
▁wo
mir
nta
▁design
Re
▁WA
õ
ora
ena
▁store
▁Alle
▁meu
▁May
jon
▁bilo
lit
lık
▁Ж
▁yg
▁help
▁Hai
$
oni
iv
▁peut
▁trường
▁toe
▁Pan
色
ló
▁olla
▁1000
zer
stan
of
ija
▁full
才
▁Auto
https
can
сь
愛
산
▁badan
▁κ
juk
नी
▁Ez
▁cao
研究
▁moi
▁back
▁Jak
▁<
▁Đ
ande
ms
▁kl
iste
ast
cs
▁Kom
公
▁34
▁kort
don
▁koja
tr
▁xe
thi
gang
▁gr
pat
▁quam
商
nan
cat
asa
次
ô
cí
▁Tá
▁suo
▁tij
lak
бо
▁anni
ק
▁bod
▁work
▁lên
▁lagu
▁vis
tiva
sson
▁disse
hin
▁Dia
▁Kung
mor
ui
▁service
ep
▁Ru
▁38
▁ata
ella
ore
書
tia
▁use
▁ég
tje
jes
▁goed
▁general
arna
▁dom
▁zona
▁11.
isa
dem
▁khác
ர
▁very
▁μου
▁sala
▁Ф
czy
▁kali
▁Ei
▁radi
▁last
▁ج
▁đồng
▁hu
▁48
ente
lama
mek
구
▁aos
age
▁pret
▁tapi
post
ação
ator
60
▁ban
▁đây
μα
▁USA
▁viên
nun
ndi
▁hình
▁cas
▁Star
Ma
▁vam
eu
▁apie
南
▁ima
▁bank
▁hoe
型
owa
bet
▁ito
▁sia
45
第
φ
▁gang
ını
Na
▁kale
▁02
ym
ych
제
▁pli
De
▁İ
▁gali
uma
▁//
▁37
lerin
意
▁information
▁nova
tua
por
▁deur
▁mula
▁She
erna
lum
া
pre
流
▁Kas
▁Tri
▁(2
▁नेपाल
kla
▁Sport
mana
κ
index
▁Art
pur
▁07
▁2-
▁đang
ー
rio
▁Mac
aga
?!
ká
▁HD
▁Ale
▁only
▁forum
▁kap
城
体
▁due
ých
ish
▁vụ
▁cô
▁gal
▁jadi
▁zen
«
▁partner
ér
ク
lon
▁Read
''
▁Val
▁cùng
▁Hal
▁iar
chu
▁05
ys
▁quae
▁rok
▁multe
▁bit
▁kai
▁pare
相
▁Top
▁Media
▁tutti
▁tư
γ
dig
▁Tre
med
še
▁primer
▁heb
tá
▁Son
▁historia
▁tie
』
▁ise
▁2004
amente
▁gir
▁42
▁mun
▁III
▁BBC
chen
80
▁Tag
▁Π
▁Cha
▁red
▁Sy
any
ev
▁Vor
▁Download
▁vom
▁55
▁Din
sy
▁What
log
́
▁Nem
女
yê
▁prie
xe
▁1)
▁06
▁diese
▁Wie
▁fare
▁mae
▁hành
oz
este
ί
▁porta
siz
ff
#
่
▁Av
▁nes
▁thu
▁material
▁thấy
nego
ieren
sky
imin
▁art
何
▁Bank
ín
tive
▁cần
▁Tra
▁degli
▁John
şi
大学
▁75
▁ingen
▁bas
▁vers
▁Yang
▁2)
▁Cho
▁Som
lá
▁allt
科
▁But
berg
sor
▁vita
▁timbang
▁Í
▁doen
▁dua
ské
ische
▁long
pis
rii
▁Next
▁ol
ων
眼
ман
▁menos
pal
▁jih
▁trình
inde
wy
31
▁För
▁Een
kr
學
No
nə
▁Che
▁Hindi
▁Vy
▁nhận
器
▁sử
▁12.
▁now
form
stvo
90
اب
lja
▁tv
▁much
99
선
工
▁ville
rie
vé
▁há
▁Blog
like
▁Til
pie
信
isme
sim
ean
zel
ligt
▁loo
β
▁duke
▁ق
tim
som
知
Л
▁sch
jam
ité
▁03
尔
▁mens
치
▁''
▁años
▁jer
İ
vil
▁first
▁Real
▁diri
▁hin
bb
約
▁Σ
pin
▁fri
mur
▁persona
xi
五
動
▁Wi
ува
▁hann
片
요
情
▁tej
ام
sid
▁phát
▁Free
▁say
▁day
▁love
vä
dat
stand
нд
ces
▁(19
▁Gi
isto
▁Eu
▁nyt
▁trước
ings
▁suis
urile
版
ico
▁Foto
▁main
cht
▁aussi
▁tự
▁Ми
▁(5)
▁sp
ím
Я
▁mang
▁bere
Ш
kke
▁pus
取
▁Park
jú
超
itas
tí
sini
dha
▁kimi
▁firma
stva
▁ker
ons
lje
hed
▁kiel
tions
▁sitten
lay
代
▁ami
nym
Le
▁andra
raz
يل
▁2017.
▁rin
▁kg
sed
▁Was
ル
ntes
場
▁bem
省
pri
教
▁buat
▁well
신
▁list
nio
▁serta
pel
▁250
zia
▁ش
▁bus
▁ia
▁cấp
ola
bud
▁sz
▁Inter
▁molt
▁meng
vik
TV
▁Air
▁Vo
okat
▁think
▁jeho
រ
2015
용
▁§
▁special
▁mei
真
▁dire
▁sing
▁home
▁years
cher
lü
▁Kur
▁tao
▁SA
▁Maria
oi
▁pala
ság
gt
xo
▁Hier
▁120
式
usta
▁vì
▁kup
▁dalla
▁dir
▁nghiệp
▁Če
▁Ser
อ
pet
▁ide
pon
▁DI
▁Pod
▁ces
▁set
ins
▁system
-2
wr
▁ime
för
elor
▁teh
title
2.
▁Ex
國
rang
▁sí
eks
▁pul
mise
▁Tr
▁More
▁tres
jal
▁Ban
▁perlu
▁leur
bile
Sa
over
ğ
stä
▁contact
dh
▁cái
米
▁novo
http
▁nagy
stad
гу
▁fara
lich
▁Aus
qu
▁br
▁Wy
▁mặt
▁Л
ご
qa
▁tele
▁Zeit
▁spre
火
kki
ное
ost
平
▁ky
kka
tina
cija
vid
ト
ić
集
▁important
▁tim
ava
▁Ten
▁Und
▁ry
čka
▁hasta
lash
mai
▁Pour
ich
▁War
▁pen
zie
else
▁Ре
tio
▁mam
▁standard
стан
▁aga
명
▁khách
ší
▁Des
▁article
all
▁Chi
▁Plan
▁năng
rad
▁niya
▁sou
▁India
▁svar
▁Las
tivo
uan
▁ý
▁39
▁should
▁side
lib
star
▁maj
立
▁fie
niu
▁date
▁spa
dı
tó
▁Κ
▁sai
▁Cor
nden
day
▁leis
▁fu
▁asi
미
▁take
▁lá
▁Au
▁App
▁tua
lek
▁pole
▁mine
adh
▁ص
dio
▁bé
oli
▁th
リ
▁té
死
▁azt
▁65
▁Esta
tai
ách
▁ara
▁3-
▁phẩm
▁Mag
iko
▁popular
▁same
包
vr
▁tau
غ
▁proces
ña
zem
▁Ana
ill
▁đối
▁kala
▁ông
bir
ね
▁quis
▁2002
▁Р
号
▁spo
▁sans
▁pois
gra
dk
▁Ako
▁04
itate
▁modern
▁algo
cions
aal
▁York
▁Barcelona
▁hans
70
-1
mann
sem
▁loro
▁gut
세
dim
anti
▁off
▁saa
▁fo
▁empresa
ivo
마
lä
lus
▁mari
▁Ap
Ж
ios
â
▁too
▁litt
▁sil
▁coa
▁nada
ón
▁molto
tā
▁organiz
▁could
ʻ
▁kol
▁Que
dro
▁Norge
aya
isen
▁negara
ningen
ub
▁bộ
ono
ľ
▁kau
Ф
空
35
ive
▁13.
▁tras
▁tous
kami
▁kang
▁bản
▁stil
▁Ai
ard
▁centro
▁hij
luk
plan
▁hội
zon
bh
ská
eva
dol
pol
보
▁Trump
▁Zo
▁IN
き
▁fine
▁kinh
▁tế
▁week
▁44
民
iki
▁Kun
ской
▁tiene
▁Sant
風
ses
գ
ement
▁dân
rod
▁lot
▁Cara
bas
▁Mor
hor
ρα
cı
▁proti
tom
北
нов
단
▁Galicia
▁Ini
zan
că
病
▁many
▁massage
▁VI
▁bine
uh
alla
200
oje
▁Ко
马
▁IT
▁α
▁hit
osta
stre
▁dva
λ
▁Tha
▁Ö
pil
▁osa
▁Vol
▁radio
uni
ός
fin
ām
▁Song
▁Als
bur
▁tâm
een
第一
fra
▁syn
▁Th
解
essa
imas
sis
▁multi
ük
개
球
▁kiu
time
▁mala
▁Mer
▁nahi
食
▁such
king
▁leg
▁대
▁gian
▁2003
▁valor
out
▁star
rán
言
dag
▁kultur
azione
▁tình
▁bola
▁tip
kra
直
ã
ux
▁sang
保
▁natural
sit
▁고
～
▁September
み
▁Red
▁these
▁Tai
▁poz
sak
院
▁PC
住
lab
▁thi
▁ihr
▁Af
▁bảo
▁Cymru
ža
gon
阿
ane
asta
mist
▁rol
▁sedan
▁st
kou
amo
▁mijn
itat
lem
▁bag
Fi
zio
▁Bra
▁wan
eko
少
eli
maa
▁tú
▁dah
▁transport
▁really
▁máy
▁kop
inte
회
半
ří
▁DO
▁prej
Š
anna
tii
▁Dis
Al
fen
hoz
▁dá
▁sor
▁ple
▁mau
mie
▁control
dam
aria
共
nal
▁noe
ding
▁vậy
ア
▁proses
▁pis
▁Mais
▁đề
▁seda
建
▁toàn
▁peu
▁ح
led
▁43
gue
kun
▁opera
周
▁ven
▁Dalam
▁point
para
ám
▁leo
iert
▁15.
達
▁sao
aus
▁kry
▁nám
ط
pit
ใจ
▁Bet
▁kết
▁tips
▁alta
오
電
owania
▁roman
kö
▁malo
zna
lap
▁phòng
▁laga
pt
▁tay
▁tác
▁600
mbi
cin
未
▁nostra
▁digital
首
wie
格
▁rồi
门
ū
esti
▁2016.
▁antes
ete
▁stra
pp
bro
▁14.
IT
▁lượng
木
hus
พ
iden
zar
lie
▁Gar
dagi
▁disa
하
▁ideal
km
nic
eb
▁thai
▁DA
▁City
umu
eket
نه
▁tutto
ń
▁Previous
ps
▁kul
non
▁serie
Ne
▁gel
▁Radio
さ
▁Sz
ян
▁nich
cion
tok
▁timp
石
▁시
bis
▁pl
nh
32
09
▁stato
ds
▁Martin
pra
اق
▁frem
ingen
客
▁41
ნა
▁AS
wer
sat
▁hadde
mb
py
▁bad
Ha
ving
amento
kala
▁Bre
gor
▁Tan
▁chất
▁cal
lom
▁Sta
nov
▁ore
▁pin
▁신
音
▁Gra
▁quá
▁idea
▁19.
▁Maar
▁ras
▁cosa
DA
▁dobro
▁muốn
▁dus
▁shi
sun
ใช้
う
ého
▁Land
▁One
list
rus
▁Sal
▁bằng
skap
itet
目
▁일
▁hade
▁quả
kah
isk
交
ško
vě
▁Wat
rsi
Á
▁utan
жи
ien
▁volta
▁year
制
▁الن
Vi
▁Sin
ilo
eke
▁conta
lad
▁Of
ence
▁Ó
apa
▁two
▁massa
çi
▁Ay
:00
▁sine
ary
▁because
stro
▁cer
É
ture
pul
▁Como
▁paar
▁mail
▁(0)
▁ago
ord
oc
▁Tor
落
▁chủ
eze
lere
▁World
ium
香港
ike
▁agar
▁grad
田
▁Sol
pak
▁ăn
NA
Me
sins
SA
elt
ES
▁game
▁look
世
▁tốt
관
▁kis
ario
▁Ç
▁edib
ön
深
▁rá
▁Δ
noj
조
ř
ute
▁tính
01
▁علي
mə
å
▁SE
taka
▁Tar
ann
▁David
Be
中國
kus
▁საქართველოს
nit
hla
우
▁did
场
▁~
oso
▁great
▁tyre
oval
布
だ
▁2001
▁(6)
ota
gur
ell
▁aut
▁lige
▁pháp
taa
社
▁vain
hez
ier
▁fall
▁bur
gin
mba
▁kerana
cal
yar
▁nama
ony
▁reg
imit
rek
야
▁thường
▁hiệu
▁bija
hol
▁Amerika
▁16.
kker
▁fem
常
油
▁PDF
dus
▁its
▁vera
hel
▁live
▁comment
▁muss
▁kde
▁See
75
uda
▁xuất
▁apo
▁안
sion
isten
▁(3
▁life
房
▁Zu
jat
ró
Ц
▁toda
▁ligger
gir
▁Ir
kul
▁điểm
kaan
jā
kol
tag
▁trí
▁độ
nji
유
mmer
▁Yo
sing
test
▁Gu
▁cảm
▁big
igh
▁ज
esc
osti
gun
▁personas
▁mé
nings
Ja
▁hoặc
port
▁vê
理
▁Sau
酒店
unda
ase
ök
選
▁nhiên
ór
▁tiếp
▁loc
▁qual
▁teen
▁plat
sp
▁waxa
alt
vali
▁tiu
jí
jä
▁mask
▁kus
▁download
ງ
und
ไทย
̣
ee
uj
管
▁energi
▁quanto
재
00
miş
žu
す
hle
▁thiết
▁정
▁tới
▁then
zza
▁April
kii
enda
▁17.
put
▁Afrika
fr
▁US
방
▁20.
▁mind
дзе
shme
dre
ray
중
gmail
ndan
▁marca
▁hệ
李
ech
sur
▁after
▁seva
mata
▁right
slag
vara
▁ml
ド
ský
ör
bla
bli
▁news
▁biz
▁huo
uti
uoti
gre
ult
ður
ī
▁Cum
▁Social
uit
iad
▁Pred
ID
风
fri
ance
▁bro
▁album
tari
▁ski
ques
tay
cem
wikipedia
▁notre
▁trị
▁team
news
bili
lov
û
▁ting
انه
rk
Po
хи
▁PM
▁mem
vir
ост
eti
任
▁ans
▁chức
▁tạo
▁49
szt
ków
▁52
▁Τα
▁Sha
▁case
▁deve
▁00
▁made
つ
isha
aha
字
Bu
°
ml
▁Kontakt
ría
är
百
▁Microsoft
▁21.
▁deres
wyr
ind
An
▁antara
話
fan
▁folk
ral
古
encia
▁sống
▁Paris
▁bun
rne
▁Vis
イ
▁causa
▁stop
OS
무
▁taip
pla
▁Kat
bol
『
▁elle
zin
ລາວ
ít
▁mos
▁4-
▁original
ára
▁uku
清
info
黑
ศ
▁loại
▁Far
rem
pus
jte
▁liv
iza
▁EN
lerini
ppe
air
кова
ld
▁Bal
호
▁baie
▁jen
inta
hod
▁Ker
▁mah
toj
▁cre
2014
▁Bur
▁tussen
тор
gia
星
▁Nord
ischen
esi
▁Sar
▁ე
▁vị
▁tài
▁cam
▁giới
▁én
▁paling
бек
▁át
ży
▁Oslo
▁pur
東
▁water
bí
mad
ница
▁kada
▁find
▁mano
▁pia
▁bệnh
▁Jahr
波
▁mee
▁Bor
▁họ
▁pop
®
▁moja
ness
▁(18
間
bes
▁where
▁dute
▁pré
▁mua
▁ZA
ân
gna
ey
ungen
▁기
▁still
▁Mon
進
▁Bei
▁fun
▁biri
▁marketing
▁organ
ظ
张
▁Pero
Ã
▁tiempo
ppa
Σ
▁tren
yang
▁ר
ន
fel
way
▁cat
▁mora
ppi
巴
pos
▁dun
▁Sh
▁horas
니
▁samme
▁mondo
lli
tore
olo
▁vya
▁oni
▁dove
δ
▁sh
▁Sun
爱
sche
▁sera
▁Β
▁gor
dit
▁down
mbo
bin
dr
nk
▁posto
▁November
▁sei
▁kim
itu
▁đường
▁fest
▁toho
▁ona
▁Auf
τά
mel
mia
反
▁800
▁IV
cre
Ar
▁zá
▁fog
▁46
▁hom
El
▁ingin
早
▁nay
tica
▁thức
▁show
ün
당
▁logo
▁Qui
▁dela
▁fet
▁Don
nga
より
stri
▁Mat
▁47
ška
▁tahu
▁Program
ké
▁mini
▁selle
chy
▁bên
ssen
..."
▁Hu
▁fins
rna
▁ganz
▁Fu
▁mene
dores
▁Club
非
zet
html
▁Italia
nat
tare
▁kunt
▁senza
nci
hem
千
▁str
▁mye
prav
04
wn
▁Khan
▁Anna
▁turi
▁Dat
ese
▁interes
▁possible
兩
▁going
çe
minen
2013
tif
300
ン
▁án
▁nap
▁18.
eur
▁libro
esta
▁fue
▁cầu
eaza
rom
To
▁nome
▁aja
En
vien
▁Saya
▁egen
alo
条
TA
ん
ё
yle
NI
▁Santa
mě
▁rus
werk
▁Mari
▁bili
州
god
pot
▁Γ
▁fac
yla
▁yêu
die
she
rez
體
▁deux
▁lor
▁π
▁iba
▁mur
ets
▁Stra
anie
fat
味
▁tant
▁chun
cos
▁cand
AL
ful
切
공
nus
▁rum
▁oslo
ür
amos
▁sulla
vers
▁wax
▁Fra
▁doch
ils
skom
▁doanh
▁mert
ən
▁Mark
馬
ligi
lia
сть
▁2015.
▁principal
▁kara
▁Wenn
▁klo
▁đại
▁tad
▁Els
경
▁hora
▁tag
▁aktiv
▁64
rzy
血
▁CD
华
▁dur
sus
▁pad
모
ania
▁poco
bri
▁rasa
▁Ла
▁chu
ont
▁pana
▁PS
▁hard
▁hel
nder
atu
▁ه
▁Peter
▁Mis
inis
▁bilder
연
號
▁ew
わ
——
rel
▁global
rer
▁anal
▁esa
לי
▁tháng
▁Hor
▁nisi
▁lớn
awa
修
▁lle
▁text
▁điện
isht
▁koko
ø
kos
▁나
▁Fer
čí
ция
▁hot
▁dina
▁mus
NE
▁svi
▁Sur
▁Sp
ttu
▁IP
▁Ger
Ba
▁terra
▁menu
BA
▁being
若
▁nang
Ü
enza
▁Pada
anda
▁August
▁mille
▁Kal
▁support
▁giúp
▁business
▁Ty
NG
!)
▁Tanzania
▁چ
▁twee
今
ére
pper
ls
▁Tin
▁stre
▁khu
dzie
▁gy
lta
vos
▁pet
▁q
夜
kim
▁gol
tzea
▁before
▁must
▁pil
Ч
▁Ved
▁Esperanto
越
▁presente
▁vẫn
▁Commons
▁Festival
▁kế
▁tel
▁mia
iri
▁mali
Ka
ért
▁무
sinin
iau
▁sitt
▁liên
}
▁saber
▁Aku
▁Бо
ust
▁Wikipedia
▁dra
▁PER
▁mein
▁casino
여
▁Kui
▁inform
▁Plus
lgan
▁phần
tika
05
Ó
larni
▁sok
▁enn
wal
ove
ец
▁Công
ave
MA
▁mense
rê
▁sina
▁yên
▁ach
▁cei
▁tun
▁cor
▁Pak
▁Brasil
▁김
TE
elo
dz
▁CO
문
ço
▁Voor
▁Israel
▁ditt
ams
ladi
band
▁Ada
hl
물
▁Kim
▁edi
▁1999
▁Sub
▁UN
skog
▁fod
tv
rai
umi
▁gode
▁Shi
▁hau
צ
▁Tro
▁through
▁never
▁hen
▁dio
-3
▁quy
08
▁Roma
▁Kami
▁pedig
連
Do
▁Anti
Pa
▁bata
▁give
▁Pag
▁jog
bon
▁review
ør
▁bes
▁Tom
^
▁동
aca
LA
▁International
GB
▁cea
-19
ose
▁olen
07
▁trang
▁insan
kir
▁cr
六
▁slik
iye
▁cael
▁those
萬
▁Ev
▁ea
▁festival
adas
DE
▁punto
igen
นา
llen
▁etwas
gro
had
▁kaya
▁Mr
dek
え
wel
め
€
▁dedi
▁alte
▁kuma
▁sido
▁2014.
nza
▁PAS
▁legal
▁Kako
▁3)
영
▁Ram
col
▁waren
▁Sverige
igi
▁escort
▁Mos
▁dùng
▁erat
▁Vous
tid
▁edo
門
hang
▁dum
aba
▁lag
▁poli
▁nhìn
rada
室
ři
Č
ина
▁nepo
ées
▁dall
kam
▁Projekt
業
oja
ace
▁neste
bul
kg
▁eigen
dele
▁vấn
▁vind
▁Бул
▁kuko
▁autem
精
von
jn
ալ
iet
ST
▁Hà
film
男
gat
▁Egy
.000
dí
imiz
tera
▁actual
▁kind
▁pir
▁PO
NO
▁Ü
ין
▁genom
tung
▁hoc
▁Casa
▁Aber
ος
▁ord
▁Ama
▁klik
▁Xa
maq
▁bao
imus
ù
yl
cja
村
▁Kwa
▁There
▁kre
tun
▁maa
▁privat
ま
▁shu
▁bom
▁hela
▁Sch
▁kod
▁Test
ijos
▁familia
▁51
▁giải
uka
Ö
tada
36
▁két
ści
▁Ky
▁anno
▁Yn
tı
▁Tamil
▁hus
ette
▁Ah
▁BA
▁kri
ják
▁sini
мир
▁Ste
▁(7)
ラ
▁moc
iro
usi
ple
iska
▁cá
▁tiền
八
fal
▁Och
▁bán
▁Բ
▁180
▁ton
▁hul
▁thị
gil
TO
bio
▁sel
北京
▁Quốc
langan
▁rast
▁medio
За
▁pang
▁Samsung
sol
▁grund
side
▁band
▁giờ
▁Cer
ihin
US
nc
▁mara
▁especial
ow
▁gara
gli
▁hati
士
ism
▁simple
ule
▁pay
處
▁asta
yı
but
oko
▁brand
gos
dhi
ajn
▁Tam
care
thu
ского
tako
▁Kr
iai
95
zni
sje
안
kle
dere
▁pic
应
▁Å
▁mama
szer
▁donc
▁pena
zh
香
IN
▁porn
Si
▁dai
▁encore
нь
いる
ще
nel
▁milli
พระ
▁Madrid
kiem
yer
▁promo
▁22.
cü
41
bang
▁Del
ö
▁Mü
▁LED
▁kay
So
auto
andi
▁sector
eau
▁Naj
AM
ovanie
青
국
teen
▁sud
▁53
kut
▁Inc
完
oma
sty
曾
aja
▁Pla
▁direct
▁heel
▁σ
▁Φ
kie
grad
ith
▁bê
▁things
▁5-
cel
▁wana
cul
▁Une
▁Biz
▁54
dzi
isia
照
inni
▁KU
sek
▁poi
▁vitae
lec
▁dine
▁Nacional
▁world
军
iset
▁Kara
app
▁อ
zik
rim
bie
06
▁Pol
▁London
ern
▁sc
▁eines
mış
先生
kä
bl
▁bài
▁vasta
▁bulan
iche
ments
▁suas
▁văn
▁vero
▁trop
▁bodo
▁fy
mani
▁eri
gere
班
PS
▁gas
▁wees
▁Creative
▁RE
▁vien
▁50%
▁dha
yu
▁sure
▁Vai
▁General
Mo
stav
MP
語
▁aur
alan
OK
政
▁China
▁عمر
▁groot
▁56
▁visi
unt
▁Cal
▁integr
▁aina
▁sak
▁bay
lic
ван
▁gur
SE
▁ef
▁lama
tz
iek
fall
▁Parti
▁bene
ência
▁ảnh
▁stand
▁minut
▁tog
bia
rup
nad
▁마
▁Fri
▁acum
려
alta
33
达
plat
bot
▁page
▁gada
-10
udi
▁95
足
▁park
▁Rais
▁lê
▁Gal
▁Att
朝
▁Các
張
ček
▁báo
spe
▁bel
mini
Э
初
▁gen
aka
бер
▁nulla
▁lần
▁unde
ude
stel
iş
nam
书
▁gente
▁thương
▁sier
kes
▁Live
char
▁grandes
▁stabil
▁Jos
▁Mad
▁MA
▁Hotels
▁β
46
▁dana
kai
nir
應
▁magyar
llo
48
ına
▁Sri
▁trở
▁Ol
str
yin
▁đẹp
▁eile
anak
▁Nr
▁Full
▁Zi
uli
▁58
ther
39
▁sent
▁verk
AN
▁cookie
▁ese
▁Lei
wch
▁đều
nsa
υς
▁tale
▁Dom
▁Tel
▁Forum
▁ک
tig
▁ε
▁name
▁bile
금
▁Ю
▁85
▁nə
コ
aran
isch
tól
▁jul
riya
形
cas
▁watu
奇
▁format
▁Catalunya
ug
▁aqui
▁tuli
ï
less
▁bonus
▁tập
gs
▁intr
▁energia
νη
图
KA
基
ъ
isin
▁hóa
▁process
SP
▁Nội
▁triển
-18
▁ander
▁(4
거
▁continua
▁tiếng
▁fund
aire
ñ
▁vista
▁72
總
▁profil
▁mắt
▁`
▁prema
▁●
არ
yon
hon
ət
gh
▁Ng
kit
▁ori
heim
▁Kinder
win
▁pres
sze
マ
ír
Li
000
ș
03
ös
pres
▁soll
▁NO
▁magna
ayo
tic
思
▁glad
強
▁Nous
▁strategi
▁menn
▁tinggi
▁Vel
rka
▁cos
02
▁Rad
曲
▁23.
▁Just
šti
kali
öl
▁cuộc
rei
▁leh
▁1998
▁Fo
▁tener
▁Over
เงิน
▁ancora
▁ris
▁Fel
圖
▁Tas
▁avant
ador
▁dil
chod
▁mp
▁dự
▁lực
tit
▁lange
▁sett
liv
sio
▁aug
▁Mp
▁BE
▁Res
▁Under
▁Hay
▁Bay
▁ih
ową
inio
kis
▁sha
voj
▁quo
▁già
▁bort
▁question
nne
」,
▁inne
▁enda
-2018
▁AM
▁spor
CO
▁gaat
▁visita
▁presidente
ская
PO
▁glas
gio
ht
▁cur
AS
▁Jesus
▁proprio
ula
▁dike
vez
源
雨
ตา
▁sva
▁Anh
ako
▁posta
▁Bakı
▁tour
▁anys
提
江
ň
▁sida
На
▁Ли
▁Sul
▁ES
▁nici
ον
土
tru
cam
▁EL
▁civil
rze
▁diverse
▁try
▁Off
▁Apa
▁hak
și
▁nieuwe
bank
▁open
▁AL
▁nego
▁cultura
干
▁jobb
▁Trung
gg
ats
▁Գ
emos
▁dịch
▁student
bare
tka
▁tapa
▁begin
tab
▁something
▁JA
▁mismo
skim
▁Ac
ppen
▁hace
jak
▁nej
ând
▁ví
▁Dy
▁bedre
tě
हरू
▁kamera
▁ina
Ta
▁Pat
▁central
▁premier
blog
校
▁Hari
rian
▁fond
ait
▁trọng
▁nom
SI
▁Hot
got
▁National
▁wake
屋
▁kuna
▁Max
larini
ário
▁That
▁TO
rse
erte
▁zal
▁bla
▁pari
▁Instagram
▁faut
इ
▁France
пер
酒
-12
IS
▁chưa
▁NE
▁tablet
▁Pir
▁grand
▁←
ging
▁són
Ä
▁comp
ər
▁Ok
▁hoạt
▁aad
▁tor
▁bất
gó
▁lett
港
▁nema
▁SI
II
▁own
▁bl
▁chọn
▁spel
hir
▁euros
▁Day
▁primo
mark
nni
▁Dal
▁(8)
▁Qu
vio
▁tum
sä
▁62
sport
mg
λα
▁tiêu
▁tìm
По
▁700
カ
▁staat
생
▁peng
▁Č
▁Uz
58
stru
cc
lina
mä
די
▁Nova
▁Cam
▁Black
bak
▁nell
▁Cel
▁99
hari
▁Lan
qi
▁Net
гор
▁Up
▁vei
MI
▁مصر
皮
▁premi
▁gera
TM
▁]
taj
▁tím
樂
être
▁anima
ans
data
▁Tele
verk
▁Ven
▁57
▁oko
▁xem
▁quem
れ
毛
▁Oh
borg
nova
ër
▁ireo
▁petit
▁little
sul
.10.
▁norsk
raj
ney
link
кор
բ
▁sedang
کار
▁sê
zko
▁fort
▁Paul
áin
▁marka
▁افغان
nka
▁nhau
▁Milli
ző
▁meno
ì
▁Sem
▁arte
park
▁eo
战
▁banda
video
▁Amb
▁metu
800
kort
▁Gre
▁Bio
lio
▁dessa
▁hatte
eret
▁ret
▁dog
▁Berlin
▁USB
ijo
▁mars
▁dẫn
▁1,5
pr
zat
34
▁cred
▁fino
個人
▁stort
▁arra
pod
▁Kaj
▁ela
▁lúc
▁aller
maya
▁Türk
▁cena
▁gri
▁Tapi
iamo
ums
▁capital
tine
▁fois
▁sami
▁old
▁Für
▁head
▁פ
▁Jy
ovali
-5
野
素
▁Movie
▁mbi
វ
派
冷
dul
▁arba
tuar
ping
▁Oo
▁rằng
▁Pie
▁mitt
sc
rig
cze
ère
ulo
ngu
▁proc
▁Kol
章
▁kuri
▁Vad
jev
▁Vir
▁sense
▁saka
Ge
▁manier
inter
▁passa
▁thật
hur
▁xu
よ
▁Hel
aux
▁nic
▁Já
▁Ud
▁Hun
vod
▁putea
내
2)
▁Ed
▁Ara
unun
tais
Te
▁nota
ries
地方
▁lat
dhe
uku
▁risk
▁weg
▁PRO
▁lịch
cor
ath
▁2013.
kwa
▁χ
ď
▁Não
mé
▁Bon
shop
▁nesta
radi
▁West
▁Alt
abb
▁mea
tà
ðar
▁sum
▁φ
▁Má
has
福
̀
rg
▁kuni
菜
▁Muhammad
ень
▁november
▁color
ران
Mi
▁temu
華
▁1997
▁tên
▁rest
cum
▁Come
mina
▁uten
oh
rí
▁ngoài
ME
long
qo
▁İstanbul
改
Co
▁peste
dla
tto
법
lou
menn
▁Hand
▁type
▁MP
▁kra
難
▁sar
▁Tal
▁thống
▁recept
▁sila
▁They
laga
▁10%
▁Mil
▁{
šte
dina
▁ren
kre
owi
2011
rp
▁vz
lui
kh
Mu
wat
▁đổi
▁aika
▁Meg
2012
▁school
nah
▁Ham
400
▁quyền
▁vier
▁kurs
▁tap
him
▁stran
街
nn
600
liche
居
▁server
orang
▁Vil
英
iyo
TI
ilen
▁april
▁seit
aji
ville
▁Bil
▁permet
▁paa
▁argument
Pro
▁hang
▁Group
▁nord
SK
ction
▁mucho
ích
ائ
Com
vati
▁Nur
▁region
▁sim
▁status
ezi
紅
sız
▁sebe
▁Deze
양
slu
nau
タ
cis
sso
sil
▁unsere
▁cela
▁thân
▁seine
▁WordPress
▁tega
keun
ous
turi
▁mij
▁Poli
gla
þ
alis
62
▁domu
▁kel
ants
▁Let
▁sko
arte
▁few
▁nữa
ск
CE
▁KA
əm
▁vari
▁favor
dum
▁PR
▁Sir
not
kad
服
▁huis
▁taka
jin
▁alam
siya
則
▁quốc
微
▁facebook
▁mọi
reg
ithe
▁मोदी
▁mida
▁alan
że
kot
owo
▁Ž
▁passe
mh
niki
LI
imet
IP
▁around
▁Mur
▁content
37
dne
idi
系
nap
▁rep
▁Spa
▁tudo
▁faci
實
▁tê
河
pati
▁software
▁quyết
liği
▁hr
▁mostra
▁boli
38
▁2-3
eux
▁single
▁eso
rov
▁past
gl
▁Roz
▁Nach
▁industri
▁kraj
▁mí
cle
lai
-20
▁cost
▁debe
eh
▁firm
AB
aigh
▁phương
fici
lica
rib
cker
jum
гар
dé
▁Neu
▁pula
wang
▁Trans
kop
iam
▁ner
ingu
anno
程
yd
▁2020
▁dok
▁jis
▁Kul
massa
nna
site
▁nếu
▁asa
▁cerca
▁PA
▁mira
ロ
島
▁tăng
assa
eiro
في
gno
▁doma
上海
▁monde
રા
▁natur
lev
▁Inn
余
▁liệu
▁Deus
▁59
▁neue
uko
▁hoàn
▁SMS
ยา
▁pal
博
UL
▁fit
▁lời
rdi
▁yi
▁vô
▁São
▁MU
эр
存
▁high
Ho
十
selt
fon
▁Mei
▁Not
▁Mga
▁presta
cca
▁gener
▁Fan
▁Medi
▁visa
WA
▁dati
ldi
kata
angan
eer
▁geri
rî
kara
koa
çı
kem
茶
dala
εις
▁brez
▁Ye
▁How
▁66
望
▁dupa
▁hyn
omis
▁chuyện
τος
adda
kry
エ
4%
▁mogu
▁male
▁nunc
▁đơn
▁ME
▁lah
▁hava
▁play
▁Có
nimi
▁persone
▁พ
▁motiv
jad
▁AB
kup
▁worm
Про
▁Ú
▁Autor
▁robot
▁Tour
▁nội
▁Dil
▁aiz
spel
▁ID
▁bang
▁state
▁always
▁Best
▁altri
▁fick
rata
unu
may
▁Play
▁nepa
zim
ær
▁keer
红
mpi
▁จาก
▁services
レ
▁passer
inti
▁sk
cka
AI
▁version
kha
▁Team
hit
eksi
▁stress
▁automat
sho
kli
hara
▁typ
▁kum
ildi
▁yw
▁mikro
▁Comments
raf
▁inom
▁file
2010
▁hắn
▁(9)
kken
aza
klad
fur
▁dh
▁Här
▁itt
eerd
iku
▁sui
dil
▁port
▁đất
▁sale
▁tử
▁fire
ư
歌
▁sách
HA
kari
▁pasti
gol
▁camp
▁ibu
▁tento
▁ary
▁amor
▁administra
ique
▁libre
▁MO
▁lin
遠
▁rei
▁(5
▁esi
▁ph
▁better
Ú
▁fordi
▁song
aste
ament
▁faz
61
▁viết
udo
43
vert
▁lòng
▁Col
▁Daniel
▁saman
-4
qe
爾
EN
▁Ano
/1
▁Pop
▁24.
3%
▁Center
93
ăm
asan
▁hab
留
dora
ðu
▁Ing
副
▁Michael
▁Sel
▁mba
▁etiam
name
kā
aq
şe
eel
ppu
親
▁ket
96
nă
▁individual
▁lí
▁25.
▁cen
55
▁HA
▁acu
九
Je
▁run
cé
▁ký
▁Reg
GE
cus
usa
teur
▁ú
▁september
別
wen
▁centre
51
▁1990
μη
mista
▁61
▁programma
mez
▁Design
ph
box
▁taj
▁Gel
▁mio
▁sat
▁next
▁Prof
ós
▁deste
▁alap
▁biệt
▁Denne
▁agora
▁Vin
gum
▁Us
▁cop
천
▁Ná
▁£
列
▁constitu
RE
▁yok
▁Sk
รา
lada
▁130
rú
▁call
erer
▁ceva
▁OS
▁Uni
▁Ти
neet
▁địa
のか
Í
▁Data
▁used
dami
▁kla
▁đ
▁nhập
bg
▁trẻ
▁teu
sum
76
▁kendi
VI
▁KO
▁thứ
▁Kai
▁Here
JA
press
▁1995
sama
▁bai
há
▁nostri
▁essa
Da
Π
pé
语
▁Hur
▁bul
▁huu
▁sada
▁vừa
ema
owane
界
▁1996
UM
hra
iel
▁desta
lung
pag
▁meter
eira
▁every
▁kura
AR
yada
bru
σα
▁prae
▁portal
mbang
▁weet
toa
▁isto
계
▁malam
救
Con
▁ym
▁69
▁club
衣
duk
▁fal
spor
▁micro
rok
uro
▁pasa
▁Love
spo
utu
群
▁bed
cken
支
▁forte
▁gro
▁nett
lse
▁Posted
8%
▁jour
▁March
▁Bij
▁Gy
isse
段
má
▁sens
▁stan
▁share
▁mg
82
MO
rta
▁Ros
mand
▁Mes
師
στ
▁bahan
▁Gor
▁avoir
▁Ia
▁68
▁SP
ANA
▁bog
▁Uhr
rica
▁sot
nger
▁110
sco
▁63
ddi
gov
Atom
▁Eine
cza
▁futuro
▁bolo
▁ajo
▁sort
lly
şa
lē
▁sáng
▁mina
Ko
olla
▁primi
kite
▁hoy
lk
ball
tza
▁Office
اه
▁tham
We
▁tio
▁món
▁individu
/5
nico
vý
▁Deutschland
▁tổ
▁Rio
▁baza
ovo
▁RM
ilu
fre
nach
vus
▁KE
91
▁thích
6%
▁Saint
▁eden
▁عبد
gri
▁presenta
▁nh
idos
▁karo
▁uga
▁PP
tten
▁EUR
:15
yen
▁Ska
ked
mah
92
▁TH
PC
影
PA
雷
▁chế
▁Jahre
57
七
Ra
▁gay
▁zou
演
▁estado
ric
▁Pin
▁plu
yr
▁studio
ера
▁ish
▁kart
RA
igu
bad
變
종
▁nimi
戰
▁rit
▁Tags
▁read
▁transfer
mun
tú
▁آل
dah
▁feel
▁Main
lun
▁significa
media
hand
54
▁Mobil
▁eh
▁Ag
vai
▁talent
▁Service
AD
▁DVD
▁System
lju
yên
tila
lei
jel
▁Grund
▁bha
尼
rī
▁Estado
▁sino
▁Welt
痛
oro
▁yana
mil
▁vite
...)
▁thêm
▁font
▁fly
▁quasi
sza
館
dad
▁10-
eth
65
▁Ort
▁hum
크
▁tarif
ơ
▁Berg
▁led
根
igt
menti
▁job
운
▁Robert
▁2012.
pia
▁Lai
▁eich
44
mena
lid
▁Ş
drag
/2
▁fre
▁assim
ño
ndu
▁nor
▁26.
▁phí
δο
▁27.
ER
▁Tek
▁Bas
▁vit
▁28.
lichen
角
tava
hui
ologi
命
łu
nto
▁Pal
▁University
lyn
▁rat
▁ute
▁compte
eme
景
ssi
▁lập
kı
▁мо
▁bre
▁Ry
▁fl
草
▁Est
▁sous
▁Danmark
▁Mah
▁Blogger
春
tav
úr
λε
zor
cou
▁prefer
▁vend
osi
▁bland
▁Roman
▁Dans
▁Thu
back
Δ
ał
▁Bel
bou
lot
ió
ский
▁each
▁YouTube
ché
▁sức
teko
cit
lú
Bo
vam
ades
ein
lep
syn
kant
sos
▁67
Man
▁genera
▁140
uch
idan
令
▁sv
▁tutte
▁Fall
9%
▁kok
uju
▁log
MB
▁qa
▁Ele
dob
esh
▁unu
▁rund
iy
rri
tara
▁zelo
▁Auch
▁20%
bok
rol
▁quand
Ro
stin
bah
▁quia
ines
裡
zó
52
▁Bad
sme
sə
端
▁zor
▁sở
uja
тур
uto
TS
▁check
罗
▁trend
▁γ
88
바
út
▁România
▁Link
zwa
▁tamin
▁Kultur
▁ken
ishi
▁mann
▁Nga
▁sendo
rais
▁pont
连
lerine
▁Grand
運
istas
anto
2%
ität
lise
larga
▁Trong
シ
▁otros
민
urs
72
nyt
mien
▁element
sent
▁vật
▁1992
▁homo
▁kamp
極
mbra
▁rom
hay
▁xo
▁tradi
▁corpo
▁Nor
▁book
▁baba
▁fil
él
વી
uru
liste
▁1991
weg
σι
▁Raz
▁mẹ
vej
▁Telugu
▁front
sir
kap
▁MB
▁vastu
▁different
▁metal
▁sasa
SH
▁ant
▁document
▁Nel
▁AC
sana
85
▁siz
▁Baş
▁tut
вр
▁while
gis
地区
▁klas
▁hali
▁Mir
üü
AK
59
ạ
49
▁pagina
▁Bol
▁Mont
▁monitor
blo
/10
▁order
▁bình
▁Kita
izi
eniu
▁product
▁TA
▁Ph
nike
cil
▁6-
▁Br
东
▁echt
▁Hon
udu
▁TE
▁wali
ões
42
He
▁ran
▁Yeni
▁sydd
êm
fla
▁major
anza
▁House
▁qué
▁Jam
▁sci
vous
jung
áil
SO
ल्
▁mera
eń
▁velit
▁esti
▁nove
▁cro
▁datos
▁ove
kti
ム
雪
▁libero
adu
▁sito
▁juba
▁raport
▁december
zes
hli
▁jenis
▁hỏi
▁dol
감
nke
клад
▁numero
jus
tiv
▁esto
▁varit
▁buna
CA
沙
rni
uð
▁phụ
▁Log
▁metus
▁mok
rako
▁finne
▁Sara
▁mampu
plo
▁spot
erat
あ
▁pravi
nl
▁moderne
▁cili
▁Bro
▁byla
▁dib
▁visu
umo
vano
tev
▁defini
acht
▁Sim
▁kru
▁1994
▁Mart
へ
▁elke
DO
▁novi
▁gegen
atan
▁anders
ása
ikka
ék
中央
▁bud
▁chuyên
▁ond
υρ
▁جمع
▁stat
daki
اع
▁ní
▁Porno
▁size
▁meni
▁num
stup
\\
▁Maka
▁apar
▁usa
▁Villa
iske
岁
▁Pil
▁dựng
▁Model
▁Sala
▁centra
atori
▁gw
그
eng
gut
64
▁days
Не
▁line
▁Fin
▁beaucoup
▁dont
▁Tim
▁stati
▁Thai
▁visto
▁Jun
▁ego
47
▁^
toria
離
云
▁Տ
▁outro
uose
Đ
lice
siga
اك
步
▁Galaxy
▁koos
ciu
▁khó
▁bắt
katu
▁gusto
▁idi
▁trung
▁present
▁pit
ξ
dt
-15
ue
▁prova
川
cco
cara
jom
▁giao
dni
pass
▁mois
mod
▁report
▁Ons
▁pati
▁nơi
tjes
yor
▁again
MS
▁160
▁Centro
夫
fir
ome
ッ
▁project
▁Global
▁guru
▁haber
5%
▁Mini
▁chuyển
rb
▁Ø
kho
alle
ρά
▁dois
stitu
▁hev
bed
▁vide
▁20-
▁Wer
▁kazi
arak
▁maha
▁bok
▁polis
▁ember
נט
▁Pos
rul
▁1989
▁giáo
▁oh
iran
▁бай
▁Wij
hre
-17
县
ジ
夏
DS
▁Open
-16
jó
ford
▁yol
▁fag
▁Out
роз
-6
▁Game
大學
▁96
▁Sand
81
cov
▁Saat
erek
bles
vre
▁kong
pes
73
fest
▁term
▁thing
dě
▁luo
▁slu
дор
ズ
▁servis
burg
▁fik
kil
▁nhanh
ıl
odd
mene
▁bent
游
▁bona
▁cri
▁completa
▁sti
rap
▁bedste
隊
▁legge
▁bru
官
bau
▁juni
▁29.
▁might
nay
▁platform
zeit
▁circa
▁annet
▁Kap
nor
▁Nederland
▁VE
cima
▁hướng
▁jan
▁Mak
▁krav
56
▁Shu
▁AR
was
wiki
▁beli
▁keep
▁nov
▁quản
▁kasi
ncia
▁Music
▁komt
tuk
CC
▁Kha
▁Tot
år
▁ame
qua
▁poti
tol
▁unge
tve
իս
▁mode
TT
▁obraz
▁dice
▁taga
▁kole
lā
▁anul
nai
▁Pot
▁MI
▁story
▁prote
▁Vas
sime
▁Gr
āt
節
top
▁Tips
ij
▁Wo
zam
▁Port
▁suso
▁Start
tuko
sex
▁1:
▁denn
▁curso
ello
▁bot
2000
▁forme
▁chứng
ış
▁minha
▁indi
▁Rus
▁travail
▁existe
▁Những
nye
▁campo
▁Telefon
▁ngay
▁Bộ
cen
助
▁kỳ
ött
▁tuổi
nner
tega
▁haya
keta
▁vitamin
gni
▁1993
▁đánh
け
▁thuật
▁iso
hou
tico
▁Không
▁Vid
▁Mel
▁mental
zz
ψ
강
남
84
ago
▁computer
▁nghệ
Ка
antes
▁president
hana
inga
▁wol
▁rada
▁ứng
INA
mang
▁Czy
KO
jana
MAN
果
▁cura
kse
▁vu
tý
▁rock
▁4)
▁verden
▁gaz
▁tots
1%
▁iOS
▁Sor
▁ram
ydd
▁Dag
ierung
牛
▁instrument
▁Minh
▁spe
▁diam
rita
▁contre
▁2011.
▁weekend
▁mă
UN
▁number
▁plast
▁entra
현
▁livet
alam
▁nữ
▁found
▁foram
roz
▁CH
cchi
▁Info
▁sm
web
▁annat
Di
ikan
远
▁Kam
ink
olog
▁88
權
ANG
evi
bay
▁Gran
mā
dai
▁sir
riz
▁United
▁Jadi
▁7-
1000
▁TR
ologia
▁ấy
▁pé
ók
▁Ég
▁fr
▁nila
▁lát
軍
▁mand
▁human
book
改善
▁invest
▁explica
dri
▁77
ller
ád
▁nhỏ
anka
Su
prac
▁Văn
▁kuru
rou
ňa
▁சு
sine
eller
▁tell
▁rem
▁Big
▁dieses
cev
anga
ders
▁drei
69
▁XX
▁BO
▁Casino
kta
▁bh
53
▁luôn
acak
leme
▁Page
▁Asia
▁Now
▁Stadt
▁hag
▁Anne
▁Business
志
▁kilo
RO
Un
儿
ość
ax
升
rika
kü
▁movie
▁bele
▁Paulo
rlo
▁Kad
▁mobile
▁nghĩ
ků
▁Band
elu
▁Cap
▁trợ
gul
ém
mut
▁Hem
▁OK
▁informa
▁Shah
▁pap
キ
▁pasta
▁muka
▁sap
▁tục
gaan
pada
rz
gus
行政
▁Tôi
さん
▁tích
▁xã
▁natura
▁Hol
▁resto
njem
▁body
▁director
▁ilmu
idh
▁AN
▁yet
▁private
▁fot
▁kila
▁company
jë
sik
lles
▁moral
aci
▁grote
▁Entre
遊
▁Bạn
▁Long
ús
▁DAN
ağı
ARA
ило
inne
avo
7%
jot
▁Kir
▁later
vala
▁Rock
rä
sted
mari
▁Ook
▁Porn
破
▁hết
▁family
▁CON
aika
▁rent
吉
▁tho
ária
▁mạnh
teri
jm
▁Ef
▁kiến
beli
治
its
▁VIDEO
ific
▁December
tima
▁Ind
iteit
▁Tun
SC
UR
▁hol
傳
lea
abi
▁thủ
▁penis
ndra
yam
tang
▁Nếu
ned
Ni
▁power
석
▁processo
77
.11.
▁tych
▁interior
dien
zás
▁absolut
▁possibile
オ
ming
▁energie
fil
itaj
uhan
▁indica
▁τ
▁.....
▁superior
▁thay
ník
▁does
66
▁España
AT
▁nin
pha
▁DU
▁tru
cción
erar
▁James
▁minutes
武
szy
▁Sve
▁celo
雙
ining
tec
edi
▁Elle
02.
▁dost
ット
YA
FA
avi
ivi
▁đặc
lg
IR
idas
▁exp
▁¡
lut
tő
▁Europe
gem
▁barang
zd
▁papa
龙
▁Waziri
▁Website
▁Bau
lur
なく
▁vele
▁sco
TER
▁fina
チ
▁dulu
▁dalle
▁quali
▁oku
97
wing
fn
ních
▁minim
▁George
▁liber
▁dies
els
▁urma
eix
▁anterior
▁bri
▁juli
▁Your
▁76
▁Bila
▁potom
wit
▁97
迷
izar
▁đạo
▁realiz
tys
▁Era
▁pek
bha
▁municipal
uzi
▁flu
楼
▁lekker
lana
pozi
▁When
GA
▁dias
▁Bis
▁Gro
▁match
▁حسن
▁sla
經
▁Mỹ
ése
▁aman
▁350
▁regul
▁sav
▁84
▁Email
94
▁akt
▁Ön
▁mong
rke
▁باش
rö
▁71
lys
▁Mann
nyi
▁Một
▁period
▁studi
▁idee
▁73
酸
▁amit
▁Store
æl
▁English
▁wala
▁nagu
▁pensa
▁suite
▁xây
▁Christian
uran
▁kandidat
sí
▁bakal
jai
entes
dje
▁lov
▁punkt
▁coup
▁Ul
recht
▁Thomas
oti
тал
gina
▁outra
zal
▁ส
▁virus
念
▁univers
▁Pakistan
▁uy
▁chur
▁oro
▁refer
滿
sione
AC
▁bunu
Ke
▁hata
rci
Κ
▁kena
pata
▁Mun
▁verdi
isation
▁biến
▁kuch
守
▁tempor
lük
▁both
▁8-
▁lege
ški
▁mati
▁evento
▁daw
船
kl
노
易
▁illa
▁respect
▁العربية
▁Amazon
sht
hid
▁ul
▁Bak
▁Nos
▁đồ
rə
▁(10
▁kira
▁domin
:10
▁78
vek
▁jim
▁paper
try
▁74
▁yan
▁Yu
700
▁Street
unum
▁mums
kuu
▁wada
tze
tty
lő
▁macht
ść
▁Natur
boj
▁déjà
▁FC
▁galima
▁giảm
ров
cra
PI
▁Tahun
ości
skie
▁add
▁phục
-9
krat
kum
rant
▁quella
▁prof
▁đủ
▁revi
lish
θε
ūs
▁tarde
▁rõ
▁Form
乐
rade
edu
▁μ
stoj
▁tart
hai
▁Nä
wod
▁rede
▁pon
▁Kata
SS
▁Person
▁sites
86
Per
тель
nā
KE
▁SEO
▁considera
hun
מן
双
gene
mpa
▁mimo
▁eli
LE
JE
▁spraw
▁δ
maz
▁hiểu
tana
cro
▁maga
▁rien
▁toch
lī
ilta
▁mayor
▁Sud
▁AK
▁Suomen
▁cari
ブ
cina
▁Nov
▁leer
Lo
▁Motor
龍
ciju
▁osob
▁cultural
▁food
liku
AP
▁Spiel
dige
關
ct
▁minute
RS
▁why
▁thanh
ial
daj
▁fru
▁bà
▁course
niem
uks
idades
▁Şi
▁rela
▁đặt
▁đăng
▁account
mag
▁2010.
▁Sil
▁(...)
▁dollar
schen
▁minimum
kach
št
mul
▁verder
▁hori
dot
AA
邊
tki
纳
mont
dda
▁bada
pdf
반
▁without
▁FA
rte
▁voit
▁Green
森
▁Via
jor
▁turn
▁vii
mesi
ON
ame
▁Rama
aw
▁sea
▁Chu
▁bike
▁hain
lands
ume
▁baby
iji
▁change
▁1-2
hna
▁gero
▁31.
row
juma
▁jossa
▁gai
▁salon
kia
▁bỏ
EK
▁druge
▁oso
▁Maha
▁optim
▁2:
▁sigur
gad
▁Kā
tah
IV
▁Beste
dana
▁《
āli
gle
▁camera
▁Rom
eco
mă
ril
▁RSS
▁Portugal
▁ملي
รัก
imu
▁Comp
rje
etti
▁estat
▁Cup
07.
ecek
▁aka
智
▁Leben
▁meri
▁Uma
▁figura
BU
▁Bri
αι
▁1980
cap
▁questi
▁Problem
esse
▁सिंह
▁orden
.12.
▁liter
odi
Tu
rre
▁ala
▁92
▁American
▁hope
▁durant
▁Cre
ич
▁fundit
▁suma
mada
iš
▁another
kaz
ebb
țe
lej
mais
aku
▁Prze
rent
▁125
骨
cional
▁nú
▁toga
▁uusi
tov
▁IS
▁Hans
▁บาท
63
▁עו
▁82
▁sho
▁Name
▁Japan
psi
▁haft
雅
UK
git
71
▁đình
母
rile
▁sĩ
bek
▁Lang
▁perfect
▁ring
▁Ren
태
sas
▁minu
punkt
▁rak
聲
▁sup
▁cine
▁Ao
▁mie
▁fact
▁lucru
▁Budapest
mate
▁Kre
▁alto
▁maja
Ku
Ă
2009
rana
▁Hoe
▁yap
▁Pr
▁liste
▁aba
▁mó
īs
▁Sab
parti
▁cita
▁tus
ware
▁Central
mond
▁weil
▁national
oto
Ver
关
▁Are
▁phố
cik
lika
▁ellen
erade
▁Sva
▁regula
remos
▁distribu
考
▁tiết
▁cứu
▁blok
▁bhi
▁susi
▁yung
wia
▁didn
▁Gen
aro
dü
▁leve
▁nhiệm
▁chí
久
πα
vie
래
kri
▁gần
▁Bez
▁SO
▁self
▁lingua
▁stata
Ch
▁brug
▁Norsk
▁diren
▁Alla
:45
▁박
fl
▁nim
▁đưa
▁불
▁intre
▁humor
hil
▁Camp
τέ
rut
▁nguyên
dade
普
xan
▁slut
kku
68
▁professor
▁familiar
▁vode
teurs
▁Jawa
▁từng
nts
ekin
▁Obama
bú
▁Teil
▁drog
▁Melayu
▁gusta
▁trei
▁lit
posta
▁94
▁away
▁bayan
CD
ship
▁trai
▁kiện
▁sted
pare
fit
▁FOR
▁Über
伊
bos
<
▁teda
▁eng
ún
▁corre
COM
▁heller
taja
▁odio
▁Ní
▁Przy
gne
scri
iin
▁area
ngi
Az
▁panel
handel
▁finner
abil
bs
lini
▁tiên
▁yil
▁interesse
▁(6
友
oba
là
▁Jean
▁neo
▁Adam
▁libera
ikke
▁cung
aine
▁jours
▁photo
▁pê
▁mark
結
▁gram
▁98
▁spi
wis
rā
hold
▁unor
▁°
rot
rado
đe
▁doua
▁skil
rium
xu
▁health
▁NATO
▁Aur
▁sering
-14
▁isi
▁lợi
IC
季
▁MS
▁Mod
enne
LAR
vent
sca
▁Comment
▁30%
▁Digital
▁2,5
HD
▁dato
▁arm
청
omba
yal
ADA
魚
wak
Mar
▁bord
▁Ле
naj
▁investi
BI
▁vă
▁pea
▁Nag
▁Musik
ije
▁cáo
nca
記
skar
usu
▁mahu
▁kamer
VA
▁basa
▁Amma
74
▁cliente
▁Kh
宝
bila
öv
iso
▁гу
ias
▁autres
▁cửa
▁Haus
▁fur
▁Lê
hati
SU
2008
EL
富
▁hold
▁deri
gua
mica
▁equipo
ibh
kro
▁tangan
▁vest
▁ose
▁gây
▁dung
▁Partner
zek
陈
run
ndum
▁Dating
▁Ты
▁gab
陳
▁pravo
▁mele
lain
IL
▁ball
tou
▁reading
▁chia
▁Mana
rra
öt
永
bert
▁danske
Es
▁poste
mati
itti
uš
▁servi
▁looking
จัด
rau
oor
fun
▁ly
▁81
▁Life
rish
▁Ent
▁TU
▁Пи
▁Mala
niz
nul
buk
▁box
gada
shin
▁thư
▁sát
▁snel
▁steeds
▁quale
▁kies
▁Kau
EC
▁Dunia
▁voz
▁Romania
▁Opera
tish
uga
▁stora
▁rapport
▁piano
wah
rti
lal
▁kini
▁Khi
heit
üm
llu
▁Hva
tár
ović
Jo
skem
군
▁short
wu
cep
▁stol
:20
▁vivo
RI
▁baz
lok
Google
▁vidi
▁bởi
oo
▁ôl
▁rett
▁Suid
▁kwe
▁situation
▁mục
lista
▁2.0
哈
jski
98
▁Bin
ffe
▁reag
-11
owany
ggi
tés
elles
iana
▁mul
▁nàng
▁Donald
niku
じ
▁duen
▁Dari
-7
spec
▁glo
off
▁merk
ydi
▁tất
isko
bt
▁진
▁mooi
▁bana
yti
mik
Ti
cula
Za
vita
tisk
▁result
system
▁varia
oon
uer
als
▁Miss
▁đời
▁neve
▁Line
▁thuộc
▁Qa
▁justo
▁chiến
▁since
▁sulle
cent
▁tah
▁dro
▁ovo
▁SU
sida
▁Jest
cur
hé
▁siste
uso
ole
▁market
iter
▁Region
▁Ende
▁vui
▁Santiago
tage
▁sna
gie
▁xác
hely
▁giver
sser
▁religi
▁oz
▁inspir
đa
Bi
etta
▁AP
恩
▁alternativ
sled
▁rond
▁Stockholm
▁views
▁samen
▁Pur
▁consider
pala
chten
roj
▁madh
▁đâu
▁Maa
äl
▁Raj
▁Abdul
▁Public
▁done
▁lid
lán
چە
亮
▁fai
▁Gul
▁nisu
▁duy
▁LI
っ
rab
▁bilgi
▁experience
プ
▁KI
▁ligne
atur
▁ST
▁Part
CH
▁kullan
▁Most
ches
ыр
LO
▁usta
▁niveau
▁maz
▁Portal
anan
lás
chan
▁casi
▁Karl
▁nghiệm
▁hoved
jun
Die
кла
▁PE
▁modul
师
▁Cur
Ga
▁preto
▁sest
▁Somaliland
▁kn
liq
托
wir
gui
sies
ivat
nite
▁stav
mål
bab
▁With
▁Điều
▁câu
▁sad
ulu
acha
▁khiến
▁disc
gara
▁Road
apos
ffa
▁ə
▁Sama
▁vali
čan
rati
▁sola
ဂ
start
▁gew
▁lek
kod
ès
▁fiz
▁Aga
▁meio
▁José
peri
▁kah
▁room
▁Edi
▁Ett
▁vale
▁rang
▁record
▁Pay
83
▁cando
▁Power
▁ega
▁mani
族
▁plo
▁peso
▁Bild
▁Abu
ả
▁py
IM
AZ
▁grave
▁access
▁kos
奥
▁blowjob
▁Kurd
endi
▁Juni
kaa
▁schnell
ház
▁BI
▁Mara
▁opis
vest
故事
▁spille
ดา
deki
PR
▁verde
▁three
▁tava
▁money
▁leva
▁depan
ζ
ён
▁UK
▁koma
▁86
▁instal
▁3000
น่า
▁senti
▁materia
▁donne
CI
▁hea
▁clar
meni
▁recent
▁particular
▁facer
▁festa
예
▁Gud
nil
rina
▁nev
▁oper
08.
pti

low
กา
▁contro
stat
▁Nik
uu
▁Hat
▁mỗi
/4
▁lig
▁मुंबई
▁beter
▁cứ
part
▁level
▁Show
▁using
-8
▁says
jek
▁nito
adores
樓
▁allen
BO
utan
▁eman
▁enam
▁ISO
zbek
kte
▁tyd
후
isce
ば
▁LE
▁Ši
▁night
▁tamen
▁confi
غل
▁Mem
スト
▁79
fs
yg
ナ
sad
▁93
フ
lf
tut
▁Mata
▁conserva
ź
▁sexy
▁succes
▁limit
飞
▁cit
▁13,
IA
ovou
▁chị
ği
▁trá
PP
歲
date
▁Ach
▁specialist
▁sorte
▁moto
▁tỉnh
▁eum
owie
▁hafi
DI
EM
ions
▁fata
▁ghi
▁Papa
anja
▁Tema
▁nosa
āk
▁grado
iwa
▁chung
▁[1]
▁1500
▁podle
▁đàn
qué
▁Opp
ungs
gres
valt
ști
▁thought
▁Maj
ox
uur
▁certo
▁islam
▁ricerca
▁questions
▁Mam
klo
▁seria
▁3.0
▁minder
ndar
ingar
▁Zá
ED
▁gael
黃
tea
▁bax
園
▁fut
ミ
▁Monte
▁Labels
UT
druk
▁bly
lka
bun
Fa
pek
▁akar
▁Joan
▁Ford
▁Chính
▁phân
▁chr
▁Аз
▁15-
▁tend
▁arti
▁mix
▁kli
▁restaurant
rma
▁ever
▁AT
×
more
▁sabe
▁Win
▁sexual
▁Sky
▁reform
▁jums
lau
ְ
▁Liga
ged
gam
eurs
容
KI
▁SC
▁mak
▁between
▁happy
Du
1)
甲
▁zim
▁carte
依
vā
▁30-
ész
▁Pala
▁dre
dav
▁vực
tsu
▁mise
▁JE
IK
ATA
RU
kita
•
▁gott
▁dễ
▁afin
mara
▁đúng
NET
▁Sho
IO
▁regel
çu
otto
kkel
密
רה
ście
▁hộ
▁obliga
Mail
ís
ossa
tib
▁Frank
▁prac
▁cảnh
itan
▁19,
▁Dé
ター
▁89
CP
▁(10)
▁dưới
▁Lind
▁gun
iny
dyn
勝
▁partie
▁SK
fort
medi
asti
▁Dio
▁Escort
▁Seri
▁dad
Go
▁mort
▁Cultura
▁implica
▁Personal
▁dago
松
▁pali
▁JavaScript
fec
▁second
HO
▁mad
▁glede
▁viss
teli
▁Washington
弱
rate
▁behov
堂
▁khí
mol
▁(8
limi
▁luni
eres
▁ubi
▁Tie
▁hospital
▁iPad
lý
oir
tle
öm
gé
ides
▁guide
▁màu
ович
▁usar
▁prendre
▁igra
▁wer
gabe
ggio
▁ahol
▁admin
mma
▁miss
flu
GI
itus
▁Chat
hala
▁trả
▁παρά
ejo
vs
DER
▁gặp
▁nghe
▁chú
stein
▁NU
▁yê
bara
.01.
rede
iks
vend
サ
▁vệ
▁cet
nimo
skab
▁truyền
nó
ILI
rif
学院
▁İl
/3
aeth
íte
yev
▁Ly
tse
▁360
▁Τ
Pe
▁lấy
▁Oktober
ră
SM
▁regional
▁code
▁inca
▁plant
▁click
時代
▁ahaa
▁papel
▁què
tong
▁luật
▁tượng
▁Dra
散
uc
67
ruh
bruk
imh
lát
tant
▁audio
▁Gold
▁Jakarta
威
▁div
▁Centre
▁Len
▁chance
▁basis
▁đa
ffer
daan
▁June
▁ເ
mens
/2018
▁9-
work
▁aceste
塔
stus
▁emo
lín
▁cố
▁contract
▁Ora
fte
escu
▁erst
▁house
▁klein
rende
▁dù
iera
uze
toja
▁TP
rro
▁Fest
▁apoi
eiros
eras
▁Municipal
盛
▁agama
mbu
zul
ĝo
hm
zzo
▁Sto
▁fol
old
cla
▁profit
▁900
▁secondo
▁Tä
▁pá
▁Buch
▁cổ
iyor
▁dort
▁atra
▁October
▁GPS
▁holde
kira
▁saan
▁Kumar
▁max
haus
stil
▁semper
▁toán
mot
▁kula
传
uş
dic
jah
▁aver
UP
▁vast
▁bonne
oğlu
valo
tui
DU
▁càng
▁reserva
こ
utta
▁Ré
iba
▁intra
indu
▁Qo
Nu
politik
▁fint
▁tinh
ntu
▁gift
Er
▁CE
▁erg
▁Island
iyan
suk
▁rud
يب
nnen
▁diện
bord
▁politi
喜
▁berri
▁error
2-
▁class
▁imi
との
▁stres
▁mất
▁synes
aad
▁lume
chte
▁Hij
▁naka
For
ङ
lö
▁Civil
HT
バ
dev
▁ari
tani
dest
añ
▁বাংলাদেশ
▁hemen
ძე
uste
▁mapa
▁consum
▁vist
▁1988
▁diversi
▁inden
dica
▁unos
prot
▁1945
▁oblasti
dok
▁termin
layan
▁Thông
▁Good
▁Note
äh
▁parasito
рд
dari
đ
▁welche
▁offer
▁trực
Ø
▁Quando
錢
ghi
▁solid
ье
teng
▁tir
▁gach
▁Mungu
ква
sau
▁né
▁robi
▁cin
▁tine
ائل
egy
rü
oji
pic
ologie
▁ung
▁Iran
▁lé
▁Geld
vn
▁fle
▁dello
uw
▁glu
▁bàn
program
ient
dó
▁tức
▁His
dega
▁Federal
ctor
ký
▁rata
▁ges
▁smart
ác
rite
▁protest
▁stu
▁onda
ghe
pai
▁provincia
▁kak
▁Modern
▁wame
vna
▁Bha
▁representa
▁King
▁emas
▁khoản
merk
▁believe
▁87
▁Cat
▁hún
alka
▁ref
▁Đại
jur
tala
▁facile
▁nổi
lanan
▁Like
eja
亲
▁Kos
▁lupa
tere
▁abi
sang
zá
auf
▁End
▁SH
▁supra
左
mmel
▁verso
▁Master
dama
▁Wil
eza
spon
ATI
▁RS
schaft
▁Beach
▁vise
▁kalo
sma
▁ott
▁today
laki
reiz
メ
fy
▁terre
▁Få
彩
")
▁labor
▁kle
▁texto
89
▁Kali
ვარ
▁khai
▁stad
▁hala
bere
▁Gan
▁당
▁dor
▁chân
▁centrum
zone
▁January
▁commodo
▁cyn
rung
▁Še
▁\\
▁hil
奖
▁khoa
▁compra
eus
yk
▁Syn
▁Prima
▁drie
▁dài
ես
▁norma
aires
ọ
▁Xu
lav
rid
▁satt
▁Vse
▁able
78
▁USD
▁Time
amba
ores
▁Gli
Or
▁pose
mam
▁pense
▁position
▁本
trice
▁morgen
▁agli
▁dục
▁party
▁ramai
tama
▁bring
▁sand
▁HTML
▁Nguyễn
▁12-
夢
▁Health
▁henne
▁(7
▁januar
stop
▁Times
▁valg
▁TripAdvisor
▁kvar
印
ngo
tsa
▁ato
▁Arab
landi
gado
ort
▁mac
▁Menteri
▁première
▁Mol
▁Dei
bina
tsi
ZE
▁awal
▁laten
lais
oda
▁Người
▁hitta
▁Bli
▁League
▁kia
▁matka
▁kopi
▁projet
▁sob
▁School
▁vak
foto
mk
▁Smart
ntis
zí
sinde
▁Hum
khe
▁Nas
▁sec
▁geld
▁bild
UNG
ót
150
tog
▁torna
▁chaque
▁83
▁stare
▁chuẩn
čki
well
▁bomo
▁spil
▁elu
ifik
mbar
▁jusqu
▁Raja
Pre
▁claro
Ex
▁Oy
CS
lga
kraft
wala
bod
▁Nar
▁Nav
vă
dle
arra
87
late
史
▁Mus
▁Sai
두
イン
▁halv
▁boa
span
▁Multi
▁small
hte
▁♥
▁1970
spa
ash
▁plats
▁Stan
▁pool
▁bera
ward
▁Pon
▁deb
▁Bagi
lisi
▁pam
phi
egi
ρό
ston
eld
黄
vul
▁xuống
▁RA
▁propria
HE
▁Bag
nez
▁Tru
▁blitt
领
▁ros
ITA
ointi
▁Ple
rc
▁having
▁È
▁Hall
ウ
▁RO
TU
tér
▁Pel
cept
nije
▁cun
▁uch
▁khá
▁mesa
atus
喜歡
ión
▁anu
▁quel
▁Nhà
▁virtu
obra
▁WhatsApp
▁kaki
▁autre
бли
梅
▁Putin
▁Meng
tting
▁EM
▁vand
▁Bru
áž
ába
▁Thema
▁utili
▁inde
▁prea
tez
▁Ot
▁Qua
▁Aj
▁căn
hau
▁Kuala
▁rein
▁Put
▁Jul
oare
▁hê
▁achter
▁11-
▁beri
▁tule
▁Tik
▁kiểm
▁À
▁Negeri
▁Pia
▁gọi
rø
▁music
▁Hei
▁BMW
jama
▁thuốc
gress
▁Masa
▁cad
▁kha
▁soci
▁Theo
▁sint
▁Manuel
iques
talan
▁trova
▁sien
▁vere
ister
▁golf
As
▁hou
湖
▁chose
lub
▁Thi
aug
▁demande
rja
▁Registr
▁continu
藏
▁5000
▁High
zne
ALA
▁hồ
▁chơi
▁terve
▁least
pred
▁amigos
Ki
:1
ws
utus
tati
law
▁autobus
▁event
ables
mpe
▁seiner
▁tiến
▁Mobile
亞
▁Nhưng
兵
▁vais
rij
LS
tiga
key
cut
ьный
last
▁Así
▁fat
▁dito
▁sati
▁komma
▁Marketing
▁seis
innen
▁clients
tivi
llis
hotel
▁Teh
zana
edd
▁Lee
▁Ken
inas
テ
刘
▁AD
ík
sya
▁Juli
▁uni
เน
▁osta
▁Kot
▁pays
kej
▁giữa
jums
pí
▁million
ipun
▁liga
▁available
blogspot
▁hore
tate
▁Bill
▁Hin
▁hawa
▁Ant
indi
▁Έ
▁tani
mula
▁Mc
▁conform
박
▁ultra
dde
▁win
LY
lainen
▁kurd
asia
▁visit
▁shop
lement
GO
▁cy
SZ
bei
▁pik
▁Set
oka
▁Dir
▁pais
▁august
▁Fort
▁Weg
uv
▁Hen
▁chama
▁Mask
▁mese
▁nghĩa
lust
▁puta
▁Firma
▁oan
:11
arta
▁chez
AU
▁NI
▁euch
UA
▁smartphone
cke
light
兰
▁children
▁eros
▁guerra
▁times
▁91
ß
iner
klar
▁kunst
▁Institut
ped
▁Arbeit
▁morte
▁Ä
šen
तु
rug
▁BER
羅
▁ekran
sala
BE
dá
実
▁XIX
▁infra
uf
ily
kaj
ASI
elig
anje
▁xxx
KS
irati
▁variant
atie
승
uel
▁Rei
rekin
▁passat
phe
▁mở
pena
▁paso
射
nur
▁Nabi
泰
/6
ENT
ayaan
▁Bilder
dang
▁ʼ
▁enough
▁Juan
torio
玉
জা
▁bosh
▁minimal
▁principi
οδ
yt
▁reste
ento
▁Pris
ohen
▁Baba
▁vs
EU
▁LG
loj
秀
▁Orang
▁spill
▁1985
vana
▁mena
▁orta
▁manifesta
▁emp
▁soli
▁luận
rac
▁Will
hd
▁đầy
▁Selv
cak
PM
1-
▁during
äck
▁pilot
▁diễn
νες
▁agua
curi
▁zone
ALI
ikat
jim
▁praw
just
On
承
▁regular
tē
lius
▁GB
▁budget
▁cambio
▁chiếc
▁honor
ukku
▁fim
▁leder
LER
▁bí
say
ukan
▁baca
reng
▁annan
alu
▁carne
Ca
vice
À
▁Լ
dun
▁pani
oga
▁Dol
▁Hus
▁170
▁espera
▁tali
▁2016,
tër
pio
▁Anak
talo
▁Watch
▁July
▁kép
▁breve
▁Jen
▁concert
BS
won
傷
malla
nama
mbe
IE
▁3-4
lne
ulla
bild
▁clo
▁반
λί
▁skr
▁audi
▁mol
dl
yun
rama
▁Magyar
tech
▁Ski
▁consulta
ione
TC
ást
RT
▁sl
lata
▁sư
nça
▁virtual
otta
▁Bình
jt
timi
▁tellus
▁reis
tál
▁hữu
▁fundamental
▁carta
デ
▁note
quam
anse
900
front
▁kota
sig
hti
rát
▁unul
CK
rett
▁papier
có
só
gens
̉
▁lys
▁doing
sper
▁card
▁install
▁TL
▁integra
ual
▁ausge
.04.20
索
▁pou
▁tõ
byt
▁style
▁druk
▁Has
veri
tunk
▁dot
dlo
▁stellen
▁zin
▁kuo
▁Kes
gala
▁relax
▁ait
ize
▁amat
▁actually
▁ultima
▁adi
▁promet
▁Coruña
itev
▁making
▁zer
▁80%
Afrika
▁Hos
24.
lés
ıldı
▁spun
▁Daha
▁working
▁Negara
gai
aar
▁Pres
▁sky
play
▁gee
▁hafta
▁Že
Ω
▁nichts
▁luz
▁Care
дра
▁yaz
▁mezi
ښت
pool
▁Standard
▁Sat
▁evolu
▁ass
▁intens
▁손
eo
ková
iere
▁cs
▁psi
//
▁Door
06.
▁gud
▁mandat
▁Get
pää
▁geo
▁rot
enta
atra
Th
▁bou
▁minst
▁temp
.05.
▁dansk
▁(15
▁prime
ēs
siden
▁instru
stor
igo
▁Daca
▁usu
▁sev
wydd
120
rę
lsa
▁Liber
▁HP
bide
Hi
▁DEL
▁kore
▁Till
▁terror
tique
▁vot
lni
OP
amu
irea
▁bruke
▁Samo
ビ
▁Site
▁close
▁Harry
▁nevy
▁2008.
eit
▁Transport
满
▁moda
:12
▁tab
▁photos
▁asia
vesti
▁2009.
▁appar
fic
telen
▁disco
▁zap
▁getting
äng
Å
ARI
▁ita
▁stal
υν
yil
▁Alex
▁1984
▁peli
bona
iser
▁monta
iyet
▁rek
onte
eno
▁Rak
▁problemi
jih
ệ
▁90%
▁dura
▁101
▁Kra
:01
▁pili
gend
lima
ues
sili
▁milf
▁runt
miento
▁kuku
▁publica
▁mạng
飛
▁binne
▁(17
mic
mmen
aman
▁Press
▁Finn
eya
▁doit
Lu
▁ciudad
mier
佳
ations
▁qab
nata
bola
▁resta
▁Rat
▁Bran
▁diz
▁group
▁😀
izm
▁cent
PL
lock
▁Click
▁Tau
▁gry
▁mut
mission
muş
▁bố
HI
stava
ense
▁5)
öd
葉
ajo
TEN
▁Amin
▁enfants
▁visual
▁ske
lj
ales
▁cool
ksa
olu
▁daya
▁categoria
▁(12
▁though
▁Von
▁lika
▁105
▁Tem
▁Λ
:25
inger
▁Itali
▁bloc
see
▁dise
▁Jon
▁áp
▁bú
▁pob
▁pok
▁JO
gawa
▁kino
kula
▁novel
/2017
ansa
▁serve
▁Ži
čko
ţa
▁5%
▁(11)
pay
ely
imento
EP
▁nouveau
elijk
グ
▁protein
bij
▁oft
▁periodo
3)
▁kamar
gues
dara
▁quelle
spre
aksi
▁large
τική
▁gav
▁continue
納
rien
パ
▁ked
dhu
▁PT
iger
rob
▁motivo
▁joy
baba
▁similar
▁Mein
▁gracias
▁hạn
kuwa
▁QUE
▁Amsterdam
lip
chat
▁autori
輪
lê
▁Eh
▁nega
良
▁tez
gger
▁Kota
kultur
▁effet
▁Gam
▁Kong
▁21,
▁Rai
uus
▁Terra
▁Hồ
▁Ring
▁joc
▁pere
▁char
▁Mul
ίων
▁came
akan
麻
▁view
▁Tip
istes
glas
bung
▁Visa
opera
kunta
▁livre
▁registr
▁crea
▁teman
▁Ví
IX
▁Lab
uff
縣
▁mel
▁memoria
▁Kla
gji
▁gent
ตั้ง
▁pove
vne
▁sano
▁belle
▁Olen
ical
wys
》,
aime
▁effect
▁situs
beri
厚
▁kuva
abo
/11
dou
Ya
▁17,
suz
▁hast
▁hap
into
▁CC
▁zit
áz
vic
▁AV
▁Fre
unan
enti
▁Bala
hot
▁Kö
▁raja
▁trưởng
▁America
▁vod
▁declara
meye
兒
▁international
む
▁kodu
耳
▁gain
▁Meer
▁nutri
▁proba
▁Sti
▁Char
▁dona
▁skip
▁embargo
▁chút
▁Ala
▁oto
觀
▁Last
fond
hof
▁Audi
bran
▁Brit
vari
▁Sep
▁Pul
vyk
ZO
▁tome
inden
▁troch
arka
ixo
リー
▁grazie
▁Gall
▁fler
Ju
▁complet
▁skin
▁lepas
▁bá
▁aking
bry
than
▁entrada
▁1986
▁Fit
tot
pir
▁ola
▁Tako
+1
ibi
ZI
itud
▁dich
▁Jack
洋
鄉
▁nanti
▁already
▁months
pers
▁perc
▁hát
▁Ou
▁tối
▁Ball
▁triệu
▁Frage
lih
▁kỹ
▁amma
ars
nev
▁strada
EST
▁uang
▁Kunst
lund
▁tưởng
▁tranh
ain
登
Car
nang
zas
cola
▁FM
洛
▁Tuy
▁ging
▁chef
ず
▁SD
ranno
▁extrem
hrá
▁planta
▁unseren
nig
keit
▁rau
▁Öz
▁Fr
▁bob
cing
AH
tata
異
PE
irt
▁Unter
▁webcam
▁flo
温
▁rub
▁punt
dera
▁xin
▁videos
idu
▁ties
wani
ninger
zka
▁Bat
▁volume
▁Jalan
▁rec
jö
DC
場所
▁lever
ские
▁mamma
▁roll
ulan
▁hours
▁Pradesh
▁imp
mê
nec
▁timer
▁blogger
▁Владимир
▁HO
yek
▁waki
mid
kép
เก
▁someone
▁haha
vede
▁BU
pho
▁Pad
ligen
▁neat
vier
▁negli
▁Ankara
▁doesn
kova
▁toto
善
maal
▁mesto
lent
▁observa
yong
▁Thành
▁albo
▁Grup
▁NY
▁1987
tation
▁taba
▁visas
▁alma
▁Ras
▁doctor
▁curs
▁chết
▁dê
▁(0
莫
nki
entre
téri
▁wohl
▁artist
lijk
護
▁gc
lene
rgan
▁buy
ungan
▁talk
uren
▁1/2
icos
ツ
▁prix
▁haj
sub
wm
roc
tene
bbi
▁interna
▁rod
ราช
▁teng
▁Mare
▁18-
▁typu
▁kojima
▁nasa
▁(+
▁nge
tali
封
▁Tab
▁rez
rir
▁pras
▁Preis
erede
اج
rf
kko
▁naam
▁LO
▁Eg
▁stri
dii
▁Fal
休
tors
▁contribu
poli
kulu
inka
ingi
itra
oase
iak
unta
▁Unidos
▁studie
misen
▁grandi
▁map
事業
▁gene
▁credit
▁cause
▁fala
▁celu
▁mane
BB
▁harmoni
▁gam
▁links
▁vou
▁combina
▁leto
OL
▁historie
satt
lade
LU
▁conclu
feld
▁resultat
rangan
fica
vasta
▁afla
:16
ας
koli
stí
▁Thanks
/9
▁Sony
dak
sob
▁Also
79
▁sagen
▁ella
heden
▁tika
康
▁Plat
▁venit
▁White
ək
▁Hội
▁Prav
▁chịu
ック
opp
▁3:
Ad
▁1.5
▁Bara
▁Bed
News
▁Indi
="
▁khẩu
inda
▁larg
▁Nyt
2006
▁HU
▁HR
▁pune
▁detail
untur
▁Bla
▁deja
▁Grad
▁mtu
▁Andre
▁Muslim
▁mono
hum
▁plac
page
▁brit
怪
NS
▁February
▁leven
▁Mutta
Wa
eron
▁tud
舞
▁NG
hne
▁Baru
戦
▁cười
▁Tat
▁bron
▁phong
▁Kah
▁redes
▁sms
▁gehen
▁leat
▁dam
▁numer
▁Word
▁Meri
tma
▁Ahmad
ight
▁black
STA
▁khoảng
▁Sak
▁sắc
viz
▁Well
▁gul
CR
service
▁skup
almente
▁vá
▁Voi
順
▁vive
▁norm
▁Francisco
▁cila
:13
▁precis
▁ngươi
iese
IZ
▁rou
agi
▁action
▁felis
▁Grande
:14
▁Nagy
▁giả
▁drive
kade
▁mente
pta
▁proto
delen
ıcı
amh
▁Kup
よう
▁Sí
▁cru
▁Server
▁finale
▁future
▁provide
PT
▁Novo
▁alat
▁exista
▁Alba
▁mức
▁gala
▁Mali
dov
▁Image
laj
▁dí
FI
▁light
tuu
▁pai
▁lice
▁Xe
佛
bě
view
▁Alam
▁maith
▁Richard
▁four
nnan
呼
tern
▁ono
Gu
右
炎
‐
▁maison
iju
▁qi
▁Massage
▁puis
丁
▁remont
colo
nska
▁key
sé
dagen
▁veri
table
-13
▁dous
cks
▁DJ
text
▁cont
▁Lá
▁vec
▁State
ान
-2017
▁debat
sien
ۆ
stur
▁apel
▁kana
▁Gru
▁cabo
▁rea
▁Poz
/12
pris
blad
额
NT
優
arı
▁dair
東京
iyat
▁lưu
.1.
skan
tja
rach
▁Desde
tida
▁raya
ote
EZ
▁sider
▁presso
▁25-
kama
SD
▁vice
▁teren
▁Blue
▁Our
:40
▁please
▁recherche
▁noso
▁beton
▁kommun
:17
▁kwi
▁cursus
▁thoại
▁16-
▁senior
▁Fle
▁Studio
▁rispetto
▁SM
▁pes
wert
▁auctor
▁Salaam
wali
ubi
▁Sang
▁Mama
▁io
▁puno
▁minh
▁skol
wyn
▁laki
▁manual
▁futur
endum
▁daoine
rò
łą
nge
pina
育
▁ero
▁1920
▁bina
▁girl
▁Dhe
▁Dank
firma
sut
dru
▁Costa
▁sinn
▁khả
vê
lir
秋
erad
▁UE
▁Soo
lma
▁staff
agem
▁lacus
尾
▁PRE
gü
▁Tuo
▁mô
nol
▁formal
▁Sä
どう
▁gele
araq
eken
fru
itza
▁govern
▁drama
Am
▁Vest
cr
▁cours
upp
tej
▁Mid
üb
▁pension
▁Spo
▁(16
▁Aug
▁office
▁table
▁professional
▁orienta
ikus
ING
▁training
ahan
imai
▁warna
gende
▁Siz
▁Kel
▁metro
▁planet
▁kati
▁Mary
veni
▁villa
volu
▁hoa
itis
▁генерал
▁gant
▁Brand
戴
▁edin
vok
▁kuten
VO
vár
▁testa
▁teo
Ri
阳
rmi
ネ
▁client
▁altro
▁tỷ
▁lagt
▁insa
▁musi
▁country
▁mú
▁Nuk
matu
▁rico
▁Bai
▁niti
▁storia
cada
-0
▁largo
▁gru
塞
▁digitale
▁rê
MU
uza
▁ordina
▁220
▁tara
▁Mars
▁tatt
sión
▁19-
▁Str
riko
▁mwa
▁meet
▁Kenya
gge
unar
▁Novi
ông
▁THE
▁completo
ET
It
▁thần
▁taon
xit
▁dwa
▁went
▁secret
▁Cena
▁lieu
TH
▁drink
hiya
司
희
▁tempus
▁Golf
▁kontak
▁sepse
wor
▁schi
▁poda
landa
zki
rej
erunt
▁posti
KU
timo
▁warga
▁easy
َّ
▁porte
sah
▁leuk
▁filmi
▁Promo
▁reforma
▁Hak
▁Ζ
DR
▁orient
iei
▁transforma
▁Klub
▁Bundes
dali
ntar
laka
백
▁arma
▁mont
▁prove
/8
▁450
▁vald
▁meta
▁half
tów
▁Qual
You
kz
▁Kit
▁oda
lage
▁plot
▁tena
→
dze
▁akong
▁Cada
▁Tum
▁Và
▁Stor
▁muslim
▁governo
AG
▁celebra
▁Mä
▁unga
diga
▁Ingen
▁Rod
▁interven
tán
▁peale
溫
▁quý
▁Antonio
▁gái
▁maks
TP
▁Card
cade
▁hall
Ê
▁Vigo
▁sveta
氏
▁Bot
▁(12)
nske
▁Kis
▁Wasser
▁Lau
▁CA
▁phép
▁longo
父
mala
zg
▁bab
▁Ivan
貴
onta
▁Wall
LL
bing
ARE
fek
▁Ist
▁totes
▁performance
▁Songs
sod
tores
▁Presiden
▁Kä
tne
▁won
▁Eller
▁khỏe
▁GA
▁Software
2007
▁concept
▁Eks
▁poc
cari
sele
halt
egu
▁gadu
▁esco
▁Bog
▁Mau
fol
▁undir
▁fondo
emo
▁sker
▁dobi
▁Ft
▁hapa
yb
yim
wand
▁(9
▁agen
▁cư
Art
▁pow
▁πά
▁第
▁classe
cti
:50
▁Τι
ème
tioner
▁BR
▁masse
vno
▁الي
▁Daily
▁Vila
功
▁kitab
▁Μα
▁agent
雲
▁funk
▁mít
▁Stat
▁orci
ender
orna
▁friends
▁kohe
▁biểu
ża
▁mineral
▁Gö
▁Krist
▁Gün
vang
fundi
karan
house
▁North
eid
place
▁1960
▁anything
▁Akademi
▁hud
▁titul
▁stup
▁sag
振
▁nek
ína
AMA
▁tương
ters
vaa
tino
úl
▁First
OT
▁risus
ık
leng
laya
:19
▁fiscal
▁Sono
▁Material
▁touch
瓦
ָ
▁Aan
kola
vere
▁Rose
樹
▁ps
ullah
▁Intel
bari
aithe
rme
▁invita
▁dui
▁nerv
ugu
:18
emi
▁retro
▁Ide
牙
EA
▁hardcore
▁empat
▁Send
▁rim
avat
▁fica
illo
▁40%
jali
live
DD
uji
▁sapien
erd
:22
java
魔
▁("
▁frei
nymi
▁Nej
▁Nah
谷
象
max
▁zapo
wana
▁optimal
▁phone
▁sign
▁rayon
▁dictum
biz
mum
▁Xo
豆
omi
▁pats
▁Ris
▁terme
nnar
koh
▁saw
▁araw
聖
▁Text
inha
▁Ár
elli
▁once
rend
kea
▁novas
摩
▁Fil
▁2013,
EB
▁nouvelle
ján
▁Minu
▁Local
▁diplom
itse
▁Hann
▁until
▁độc
▁võ
jate
▁Pem
sema
▁hadi
▁become
▁Bài
▁Shop
▁trouve
teni
▁kina
laş
GY
aid
▁certain
▁press
▁tentu
▁Article
wed
ický
zze
▁Jung
aks
σω
stal
▁priser
ël
ireo
▁Jar
hut
▁minister
▁allo
▁clic
▁Kurs
250
▁Durante
dow
vig
▁linn
/2015
▁Sou
ôn
▁lik
▁situ
aldi
svar
▁Kri
neb
BC
▁pendant
▁ít
▁tuna
▁sper
HAN
amme
▁Dur
tæ
board
▁prov
ól
▁bide
hab
▁misli
▁management
nese
▁modifica
tex
▁After
পুর
itz
vou
▁cân
▁Side
▁arri
jska
kanak
ctus
skiego
▁cụ
voor
door
ntas
▁Milan
▁spol
èn
riad
▁1982
▁Gol
dka
sok
▁Chủ
tero
▁Cele
Net
▁kit
▁stund
▁Nuo
▁iga
▁East
NN
▁corso
vei
▁(13
jne
領
々
pok
▁22,
▁Marie
BER
ahi
ações
▁Mercedes
▁positive
義
tili
tice
iq
ffi
▁pain
▁ferie
▁utiliza
▁1918
▁dul
▁phạm
▁keh
▁urna
▁nguồn
stellung
lariga
glio
▁kurz
▁yếu
وش
▁trách
▁Politik
▁PU
rla
istu
-21
WE
▁Vill
▁kent
▁saker
▁vente
▁Internacional
▁sơ
เว
▁besser
▁Baby
▁comments
▁2015,
▁قر
OR
▁AG
▁Familie
▁fronte
▁tax
▁1941
▁23,
bé
▁amar
▁explo
너
tī
町
▁bani
under
▁Datuk
rsa
▁musical
▁Ziel
▁Nes
▁dele
▁arcu
▁gla
glia
Il
muk
▁đá
▁Nun
固
kende
▁princip
lən
vand
seid
liz
▁tj
▁cream
jeli
▁Stre
gift
▁impact
▁Cro
▁bitte
▁taky
▁vert
tado
▁Taip
▁trip
▁Tā
▁Albert
kord
cida
aat
▁aq
ect
▁exact
▁stay
▁darbu
şan
▁Kaip
▁dzi
▁turpis
▁venner
▁Bes
▁PH
卫
▁women
ANI
▁Prin
▁hưởng
▁Kle
▁Id
rzę
life
▁primul
▁holl
▁gall
ishwa
▁Continue
▁warm
rist
これ
EE
llar
gā
▁pse
voli
▁arre
▁intim
▁VOA
vate
too
isan
razi
ַ
▁participa
▁sá
▁1979
▁meny
▁chống
{
▁Carlos
▁đau
sl
▁reci
:23
▁topp
gana
▁manifest
VE
▁kabel
▁ayuda
▁tổng
▁hair
▁Ltd
▁hãy
준
▁slot
▁Đăng
寶
spekt
onych
ilt
njo
▁drag
üh
▁kro
▁Mate
▁hormon
▁import
main
▁ν
▁đảm
▁couple
pere
maks
sett
ERA
tho
abile
▁Porto
▁Natural
▁Sm
▁Fat
sund
dziel
▁mauris
pari
Ab
▁Spec
▁manat
▁laut
eris
url
love
ND
▁tarp
fund
INI
▁Eng
▁Bob
▁William
▁haut
NK
▁np
▁sep
▁Чу
▁dood
▁GO
lach
▁14-
▁nami
▁Fly
▁negativ
ụ
▁unit
Video
▁Old
▁Carl
▁2017-
▁seinen
▁dros
▁cây
静
▁CHA
bog
ổ
▁Harga
siniz
▁alia
▁wong
/2013
esa
▁CR
▁Nak
ち
▁Dá
▁stik
▁Ata
jeti
▁Express
▁Special
amp
▁South
▁kem
▁tố
▁ost
▁organism
▁wis
▁ABD
▁pale
izzazione
etto
cky
Ā
fog
▁hennes
odo
▁bala
▁adult
EG
Her
健
NY
gade
▁thôi
▁research
▁sr
▁slo
▁Gabriel
uter
▁Bangla
▁conten
しい
ITE
FT
kkal
erea
ŭ
▁enjoy
▁pru
▁rik
▁24-
▁aig
▁sare
▁mada
ors
niai
▁duit
[1]
▁hende
cip
rken
▁limita
Bar
▁tang
arma
▁epi
瑞
▁Fast
蘭
▁õ
▁industrial
▁boy
bart
kers
▁chương
▁economic
▁costa
▁Eli
ithi
▁cậu
ît
▁Liên
▁đáng
elsen
onen
▁priorit
tent
▁Xi
▁Jä
buru
れる
▁Wal
▁nihil
ikin
▁parc
▁send
▁MD
rius
▁Sunt
rier
leder
apo
▁pagi
seg
wol
▁PARA
▁phía
▁Fran
▁isa
▁xi
nana
rli
▁fosse
ög
spiel
itos
cad
eria
▁importa
ology
vist
▁Vali
▁wys
Sch
▁scen
▁sah
▁besten
guna
▁ici
▁candidat
▁Ami
▁lib
▁Kop
▁Tổng
tei
▁Lin
▁2007.
tain
email
〜
▁minuti
▁Date
▁Act
ív
stelling
▁basi
rav
jde
▁redan
▁charge
ijn
▁arvo
▁rapid
▁Guru
▁train
cons
lík
▁realiza
gram
▁1,2
▁prisi
▁quibus
▁tien
▁foc
AJ
INE
▁ity
▁âm
MM
▁caz
owana
▁tare
▁poker
nikov
online
nze
▁Москва
hard
▁hỗ
▁gilt
west
:21
▁februar
▁Eta
óc
▁Sad
ussa
▁ficar
▁following
.......
▁tok
乱
zett
▁slag
▁PI
▁ideas
rela
RM
vista
▁sull
huis
vih
cular
:05
▁Royal
モ
ringer
jpg
▁Thank
▁durum
▁1978
▁regi
elen
▁Gun
ibu
▁pó
▁VII
mog
lies
rena
full
▁ligula
▁Canada
:24
▁left
▁đội
RC
▁modeli
ones
awan
▁gospodar
▁Dec
▁kie
toi
arum
▁Rp
▁Pap
inci
▁junto
stig
征
▁viata
▁prop
NING
دون
рь
ála
▁move
/2014
ail
▁lâu
vision
▁Προ
ացի
▁112
▁CS
▁together
▁Dam
▁Már
lă
▁moni
▁Bus
▁berke
▁phá
itur
▁VA
wood
▁Dor
▁luat
潮
▁dưỡng
岛
▁prek
井
▁estima
▁desa
▁Zen
▁Ça
伯
kast
▁Informa
▁Say
▁Mail
▁students
▁Bola
▁mic
▁Management
▁spin
勒
▁Lebens
▁cuối
▁Youtube
▁Kannada
▁push
▁Museum
▁grav
bə
mēr
ally
▁Singh
▁raj
mend
▁13-
▁dieta
▁Yan
▁Cali
▁gradu
▁noin
yet
▁kwanza
▁nan
usz
날
▁sensibil
▁kolo
▁message
▁Nokia
bag
pli
▁omnes
▁Сер
▁masu
hib
▁gave
▁Find
▁asu
ffen
▁Duis
▁yao
▁zad
dini
▁dile
▁dare
fika
Мо
tiin
okra
▁signal
▁Tv
▁nghị
oak
▁Stu
gren
▁hana
rva
▁hôm
▁SR
말
itor
▁mihi
UD
▁Kay
▁70%
cial
▁misma
▁luna
효
article
▁giữ
▁tea
valg
▁cực
tü
▁formula
▁propose
惠
▁sisi
▁Make
▁hip
▁tung
kurs
▁halda
▁TER
▁pdf
▁EP
▁(14
teria
▁mening
PU
▁café
▁Face
セ
▁dru
▁decat
eka
▁Cô
▁lyd
taria
▁prese
%)
▁viện
uva
▁animal
laus
gers
▁Majlis
loga
▁yen
▁Call
▁nice
▁dod
▁institu
mber
▁knapp
yum
▁MAN
▁fill
許
胡
▁jí
şı
even
▁Haf
stwo
▁lima
▁Cri
enden
▁Korea
lagt
zil
▁Simon
ở
興
▁Gau
peli
▁speciali
elser
pren
▁city
▁taki
▁hart
▁poter
▁avis
▁dock
▁hir
▁figure
▁laptop
▁Radi
▁Hil
στε
rani
yw
▁pom
usti
▁Bang
▁interpreta
stol
▁parla
tê
spar
▁ê
eed
▁danh
▁restaur
▁qur
渡
labora
▁Iyo
:59
legi
Ve
▁ask
▁basta
holm
tivos
▁Satu
▁kroner
▁ff
▁Pam
pang
hk
▁google
▁Waa
▁paz
▁hd
rza
▁sza
▁heart
▁script
จังหวัด
▁krist
cii
▁lors
quen
▁Pet
ating
▁dialog
▁Shar
▁Premier
▁1975
▁Spe
cess
ến
nete
ndung
▁sic
▁unser
afi
motor
▁maji
圣
♪
▁against
poj
▁CI
phone
▁128
dela
▁purus
▁ngành
▁toon
▁trouver
wad
童
rás
▁cla
▁symbol
graf
▁volte
▁Tartu
JO
▁mahal
▁lager
▁graf
▁trạng
ガ
▁comune
▁dados
▁olib
▁sterk
▁lựa
lár
smo
▁Հայ
兼
gte
▁Upp
▁Todo
kina
▁nemo
▁TOP
▁surat
▁Sultan
▁Reise
▁stro
zir
▁aldri
▁parasites
vite
▁kv
▁inge
atura
▁programme
▁10:00
▁Student
▁liberal
▁include
論
▁hub
记
▁kant
lho
pide
▁including
agu
▁Lig
▁disso
▁Sig
5,000
▁Imam
▁quen
▁figur
▁1944
▁rip
vare
▁Merci
tius
mund
▁1981
▁gaya
lp
▁berat
pping
▁correct
▁prem
▁azal
voi
▁influ
苏
▁Kuu
üs
igas
▁expert
▁slab
▁everything
▁1983
pm
▁Key
▁Pinterest
▁Back
osan
▁Sus
▁consumo
▁holder
▁bune
▁■
▁Mega
▁ello
▁voce
▁points
dura
▁Bos
▁pui
▁started
ruk
▁langs
iant
▁matter
rū
▁invent
▁Ona
▁17-
▁plak
pende
klas
urus
▁vamos
stilling
▁Angel
nü
▁TI
▁community
▁salut
dez
09.
▁favorit
▁ura
▁kiếm
feri
▁21-
rich
▁asko
EX
anne
LC
▁canal
▁accept
YS
▁minus
▁ava
▁means
Ru
koz
▁meus
▁RAM
▁Japon
▁kalian
▁Khu
編
remo
▁ume
ery
▁Domini
▁batu
ūk
▁travel
▁dini
▁cạnh
▁kê
euse
logo
▁Norges
pru
▁ayat
▁lisa
ood
▁Bitcoin
-30
▁grond
ZA
TOR
xon
▁uống
▁menor
▁jun
▁produc
LT
kart
camp
▁pt
aye
▁cod
▁legisla
skou
ovima
▁others
tiba
▁wata
▁stark
▁cinema
▁metri
▁urban
창
▁đoàn
LET
▁spl
ÁN
kok
kül
hora
ết
▁conto
kura
IDA
▁needs
▁Hospital
▁dhi
tiko
▁Control
▁complex
TY
:35
мена
▁spar
▁young
▁nomina
VIDEO
▁anim
fə
mera
dare
▁ange
▁OG
▁law
▁price
▁elimina
丹
kien
iano
▁Abs
toon
uara
▁lok
ノ
▁gaba
▁Final
NH
▁elektr
▁1977
▁gammel
▁hoor
▁transform
gje
dian
HU
▁keres
▁edit
▁mesti
cimento
maj
▁acuerdo
▁eur
▁low
quer
▁Sko
dua
▁Minden
ald
▁(11
âm
stran
▁akin
▁informe
▁Sla
▁Spor
▁Box
▁Lí
▁dhu
næ
Î
lite
▁conditions
▁labi
▁gat
ktor
▁Erik
sai
penda
kovi
cura
▁Thanh
/2016
igis
:31
刀
▁Schul
▁Project
jala
▁fran
nuo
▁difficile
▁Videos
▁famille
ộ
forma
▁determina
▁Leg
seb
▁mela
▁eos
▁Termin
llista
ddy
aquest
▁rand
▁RT
▁Ble
gă
▁varios
▁3,5
rag
ijs
▁datum
▁отдел
▁patru
ğa
dite
▁Sea
末
▁heim
ember
胜
oq
▁Herr
▁ngủ
jd
▁ales
scheid
ifi
▁Book
▁Kind
markt
coli
nius
公園
▁kabul
zina
君
▁rag
huset
▁Nee
qan
sada
▁CV
▁reja
ñe
▁produce
valu
3-
DL
grund
▁salud
▁moz
▁Py
▁hoạch
abili
▁nobis
▁siamo
▁games
FC
kiri
vina
▁wani
▁vej
▁HE
enci
▁cuma
wał
wier
▁labore
▁dje
Pu
▁UP
▁hatt
lever
▁Klein
▁besoin
dili
▁2014,
▁resp
▁DNA
▁center
ELE
inan
Fo
:27
▁tenis
▁Archives
▁hao
mere
rge
▁popula
▁Hän
▁Contact
▁1950
kamp
▁Pana
att
meli
▁Dann
▁formation
▁Water
abad
partner
▁elegant
bora
▁viz
▁kaut
▁Lit
▁Luis
추
せ
句
gali
ated
▁gras
▁Peng
▁koh
maat
erings
toni
▁sever
▁1940
roll
mbro
▁365
▁span
sic
▁rece
▁incluso
(1)
wl
sikt
▁government
▁lua
▁Hom
cn
▁Fur
IMA
ncy
▁Bit
labor
▁Geschichte
mpah
▁example
▁Nis
▁Nulla
enze
▁Bok
anca
▁कै
▁proper
eder
ango
▁2.5
lte
vind
geri
평
AV
宮
▁Stein
▁paga
▁Sú
▁apr
▁bari
▁blå
▁minuta
cket
ダ
▁Dun
▁Pic
▁parents
kó
▁Johan
pá
▁zem
▁pass
▁uro
▁vine
elem
▁politica
üt
▁1974
ța
▁Dum
番
▁tala
tko
rahan
▁Bali
▁stud
▁Cy
▁문
▁driver
▁Programm
▁4:
▁Gas
▁cancer
▁æ
▁Jer
▁Mustafa
▁galega
▁Só
▁Rum
▁sitio
▁host
▁benim
▁often
▁Work
▁Isa
▁Agus
▁act
▁hét
▁Ibu
▁2012,
▁accident
▁geb
arse
dă
▁experiment
▁Agen
▁bước
▁1968
oms
▁modal
ics
▁responsable
▁OP
bund
▁stimul
▁pele
▁within
kusi
▁inser
峰
▁penal
nī
kih
▁ster
▁Human
ndus
▁nato
▁xử
0,00
ake
▁vinter
▁From
radh
▁Zem
altra
▁Trang
▁Иван
▁cose
mü
▁Historia
▁mật
▁tém
▁Arte
jene
▁ende
▁tí
▁Eva
▁chẳng
lm
▁permanent
▁lie
▁Had
▁Či
▁Io
zad
▁MEN
▁AZ
ối
moni
▁Kru
▁krem
gari
▁Charles
▁Australia
-25
js
ribu
▁Agar
▁hey
:26
▁gyn
▁matur
SKA
▁AF
▁dicta
▁linna
▁understand
rast
▁grill
▁Gör
▁DR
ible
mó
▁pane
▁Hey
PDF
▁tín
AF
▁السعودية
▁auk
▁(13)
iyar
▁Nhật
:28
▁whole
quin
rów
▁salt
uden
▁create
bata
▁decide
ニ
sens
▁108
meld
▁januari
▁Nama
▁scene
▁2018-
tione
▁Doch
kler
▁disk
▁propio
▁obo
▁update
▁implant
▁tasa
loop
▁Fach
▁PAR
▁Ima
▁subject
▁Foi
leh
:02
▁Gil
▁Regional
▁biologi
umas
unga
field
▁Run
DP
ёр
larida
▁print
▁libri
▁fonda
▁Kro
rop
▁Komp
ática
bai
▁topic
প্র
▁bunga
▁Polski
▁Lumpur
vida
▁tit
▁prev
▁Lagu
沉
▁vende
yana
torii
puk
EF
dium
▁complete
▁Irak
▁culpa
▁caracter
ỏ
êng
IKA
KT
▁fari
▁1976
tap
▁mung
▁Frau
ぶ
ashi
▁sẻ
▁María
▁kanya
pita
▁kiek
▁potest
ambi
▁Any
Tra
lac
▁vốn
inius
lishi
▁anar
▁track
Va
tuse
:55
▁Nou
0000
lif
ear
▁chắc
▁(20
hov
uten
▁hồi
▁kut
▁regard
▁25%
eiras
▁perse
▁nhớ
lici
▁seminar
schap
▁ikon
klik
▁eski
Par
▁infantil
▁Update
ハ
kja
atio
tato
▁Restaurant
chas
▁Amar
▁Fun
▁petite
ajan
mín
▁ust
▁parce
▁Bản
øy
▁vẻ
stic
mili
quis
▁ER
hê
▁Neste
▁reli
▁seal
.3.
典
tad
rå
▁rural
▁Normal
:03
mn
ativ
▁1930
▁handel
thai
avoir
▁Science
▁saf
▁Flash
MEN
oš
▁sli
▁fam
唐
▁KWA
▁jut
▁lave
▁rac
▁scor
malt
gera
versa
autor
▁fon
▁1200
ză
▁cadre
▁European
KK
▁competi
NP
zien
leta
▁Polis
▁obu
▁Lip
amus
▁hyd
At
▁descri
仁
▁Hä
▁Code
nada
▁auga
▁oer
▁Pass
▁pretty
▁barna
tvi
sara
liti
ebi
tour
▁Visi
▁permit
room
êr
▁asal
▁српски
▁reper
▁endur
Dr
atha
TB
lke
▁Bab
fang
▁exterior
vra
▁alarm
eyn
hul
▁jin
oria
mizi
▁follow
fod
programm
elis
▁redu
▁integral
duo
▁wereld
/08
▁1967
TR
ccio
▁imagine
▁Yer
▁hoog
▁gest
AYA
▁Network
uses
▁đứng
manna
cido
dono
▁Pl
maga
最佳
▁queste
gono
▁naik
▁conce
▁Đức
garri
▁sab
▁Leo
▁tira
▁gens
▁kể
▁child
▁Bergen
▁Doc
▁manu
xt
OC
▁Mh
▁edil
▁baj
ref
tral
meter
▁yako
%,
▁locale
▁Há
充
pack
âr
▁wote
▁offen
▁luce
▁Add
▁arab
勤
▁★
▁peab
▁disciplina
▁Imp
RAS
▁felt
▁Adi
▁Unha
rr
▁hic
▁tô
▁evit
▁Oli
▁1972
thy
erii
nku
▁115
nky
▁relevant
▁ON
qar
cili
▁gum
▁internationale
ojo
tamente
標準
5000
▁bek
▁Holland
:29
▁quân
▁MAR
▁bali
▁Vä
▁puna
edig
▁Blu
▁loob
▁Studi
▁cover
bada
▁Kala
iat
inten
▁αγ
olta
oca
asca
SEN
▁chữa
rog
▁Jones
▁quid
neho
tni
nse
▁motiva
unter
▁Ком
▁vene
tör
▁peti
▁summa
▁cà
▁Moment
mmin
▁rosa
zak
Pi
▁đô
TEL
▁agenda
fet
▁musta
▁(«
▁Kü
ized
▁preso
▁Todos
umba
ț
▁donar
▁treg
▁culture
▁fas
unni
▁station
▁nere
▁provoca
ţ
▁EX
riga
segu
veld
▁bambini
▁nors
▁specific
▁mean
▁metros
arii
▁Pedro
ief
▁condi
▁sizin
▁maro
▁implement
▁interpret
.4.
▁stel
▁đọc
▁Với
▁prom
Sam
wedd
▁Bahasa
slav
▁tela
▁sociales
stab
pea
đi
hom
rót
▁girls
▁termina
вых
▁Koh
▁perus
hos
neš
Kon
▁fais
▁thất
home
▁thuê
4)
HR
ğu
▁rộng
▁true
▁image
▁Tage
▁educa
▁SS
▁droit
wane
ighed
czek
Is
kseen
▁đạt
▁kh
▁Mind
▁sicer
xar
tora
▁26,
xta
łow
▁Jur
leb
▁Cookies
Men
▁normale
itta
▁Rosa
▁Boy
ALE
lę
▁Trend
▁lini
▁gym
pik
vim
ště
yna
jit
▁Maz
ány
▁sports
▁court
▁stru
tige
▁Rela
▁posi
▁College
▁blo
蒙
▁oil
▁giống
kio
▁benefici
doc
陽
▁narra
▁sain
▁Lie
csi
▁1973
TK
兴
▁sue
▁mê
▁slav
▁mission
▁testi
iae
▁Ost
▁kraft
▁kasa
▁dobra
tien
▁spr
▁Finland
▁sisse
宁
▁Ի
clu
▁Share
waar
▁phủ
▁kooli
▁View
▁solution
▁Ey
uca
▁prim
μή
trop
abh
бла
▁Tad
혜
▁declarat
file
▁address
lasi
oth
▁bajo
▁buon
▁Inform
▁28,
IF
rage
▁kin
▁laget
▁PRI
▁baka
▁Sek
nali
hap
▁debate
▁trois
▁finnes
lino
▁medical
IB
▁vivi
ndri
sive
▁rap
imme
▁seni
▁университет
▁Acc
:32
▁olivat
hall
▁Linux
▁acolo
▁Sommer
▁Fla
▁tunne
bá
lita
▁dhan
▁rend
LAN
ivas
▁step
府
obi
▁lep
▁attend
▁mate
▁GR
tras
▁estan
▁têm
▁Histori
▁spiller
kru
▁Ibrahim
▁Gai
ström
▁korun
▁phù
FE
tip
▁fix
zda
▁bora
▁blod
▁inci
▁eg
▁neces
ukka
▁deriva
llet
▁Zanzibar
維
Λ
▁Fol
▁kete
nais
kana
gata
▁класс
▁Brazil
center
▁iza
库
ERE
▁Nei
▁save
▁quoi
eran
▁atat
ASA
bera
FF
庫
iniz
RL
▁Urdu
nant
faq
▁flash
▁rendez
▁Inte
▁automobil
menu
trans
▁geta
▁......
▁hei
beste
▁Geo
Fe
▁hasi
îr
που
▁surtout
uke
▁devi
RAN
▁240
ids
▁fisk
itar
▁Sigur
▁Meh
▁Manager
:34
nout
▁oral
▁gem
▁esp
▁veren
▁vùng
▁Vás
sök
▁IL
VEN
:37
▁karto
agit
itsi
▁Тя
Mer
atlan
▁Sana
sip
▁zorg
▁poet
▁BN
延
▁Kang
/2012
▁vent
▁tiện
▁solicita
sional
▁27,
▁Dha
▁bác
rbi
冬
▁buscar
▁vital
▁everyone
▁pride
▁protected
▁brak
▁Market
lling
soo
▁medios
▁Excel
▁Ili
▁gửi
▁tran
▁Vene
▁besi
▁môi
ứ
▁tortor
Det
▁transporte
ratu
▁kou
▁socio
▁JU
▁filtr
▁federal
▁simples
kê
▁hep
govor
▁projecte
▁Jana
▁ră
▁target
▁editor
till
▁medie
▁devo
▁Kamp
yp
Har
lingen
▁vino
2004
damente
▁kiri
▁thiếu
PER
rato
▁kya
hong
▁Cab
▁DW
achta
ever
oru
▁Chan
▁lap
▁750
mov
jera
▁imam
yta
זי
Web
▁makes
cita
poru
TAL
▁Heb
▁PD
▁sợ
▁Jacob
lji
ration
▁neem
▁presse
zī
SL
▁divi
Hu
anı
▁lank
▁Rob
termin
yah
olt
jón
sina
▁gratuit
▁230
vale
rst
sider
▁Bene
real
meri
▁trochu
OO
▁jawab
礼
▁oppi
▁kil
goo
▁hund
▁Story
▁60%
sque
ots
tuta
▁riêng
eč
ợ
▁fh
▁mambo
ikki
▁weit
▁Mhe
▁Please
idea
▁Kada
lant
div
▁maat
etes
▁gabe
▁vé
vant
▁Szer
▁Energie
:09
▁wi
jang
xia
sá
logi
▁ζ
▁combat
▁return
upa
▁rank
▁pă
łe
▁adopt
▁102
ory
▁Kut
▁LU
▁θ
▁vận
LD
▁sifat
▁learn
▁associa
▁alternative
▁soy
▁dut
▁calor
▁England
▁Milano
gaard
▁Travel
▁tipi
▁Gala
▁hod
parte
▁2006.
ymi
▁KB
▁told
▁Manchester
宗
▁rug
gá
▁partes
bez
lande
▁verzi
▁fora
▁genre
▁iu
avu
▁29,
▁arriva
▁voli
▁fear
tini
já
▁assist
rody
tyn
forum
▁bă
person
▁polit
ப்பி
▁sac
▁dame
敬
dine
ály
▁German
▁cau
▁Kaya
▁đấu
core
Ми
yat
luar
▁Winter
uq
▁khỏi
▁Kosten
▁Mario
boy
▁Gali
▁Musa
ures
▁lav
▁contacto
▁blond
农
▁Rumah
▁org
▁lepo
fé
叶
▁trời
▁destina
quo
▁preparat
spill
▁jana
ICA
▁Từ
▁Light
▁enter
▁fad
gran
▁Comme
ETA
▁RI
▁Wel
嘉
vak
▁parole
TF
▁104
▁barne
鐵
▁firme
dors
nuti
▁pretium
▁Party
▁1965
aju
hani
▁Ole
▁Dos
▁ích
-22
▁azy
his
ۋى
▁Tout
▁sos
▁1969
▁hemos
▁Director
čić
▁tuyệt
▁Disney
ities
REN
noma
rvi
▁issue
▁paro
vada
▁gana
▁manager
▁numa
▁1948
▁obli
▁ince
▁apoio
▁gef
獨
▁kuka
malı
▁dags
▁15%
▁Fire
scen
▁month
▁پیر
................
▁mutat
▁plena
▁système
▁primit
浮
lder
lez
tier
▁levar
▁canto
:33
▁obe
xes
gga
▁giác
▁puntos
▁(14)
ỉ
▁hav
diri
balik
▁dere
▁bóng
mittel
▁Mira
▁doz
pura
▁lees
▁ET
DM
▁sole
head
▁Nad
▁export
ONE
▁Even
▁termo
▁producto
TES
▁Etter
gadh
▁chạy
▁lớp
宜
▁Andhra
▁trud
ろ
culo
erin
び
▁forza
sign
▁multa
▁mercato
▁cú
lde
▁voca
▁Sveriges
▁letter
▁Eco
▁omnia
tuz
IG
▁source
Read
▁master
▁rid
lud
▁nit
▁UM
▁leave
▁Core
▁plass
黨
▁Rah
show
üz
▁Új
▁gh
EI
▁Some
pte
tumia
▁Resort
pă
varo
opa
▁Segundo
▁materi
▁sponsor
▁Praha
▁vrai
▁nature
gj
▁dám
ném
巨
krit
-12-
▁COM
▁kilometr
nale
jela
jazd
▁DC
jav
▁factor
▁xét
eye
▁Texas
▁tibi
ּ
manda
San
▁api
▁Index
tk
▁sende
▁Victoria
▁role
▁taal
motiv
▁Extra
▁Disse
▁Svi
▁helg
cana
information
zis
mali
ongo
▁patri
▁Kanak
▁mega
▁grava
▁versi
wag
kay
muz
ティ
óg
▁solu
▁Skriv
aith
tische
édi
pom
lmaz
▁spring
▁trying
eto
Qu
▁meh
terna
▁Vita
▁Kinh
▁mire
▁(15)
tín
▁트
▁Salah
tisch
▁NEWS
ror
cet
kada
zug
▁Judi
OM
▁မြန်မာ
▁Gia
czę
▁reason
营
mers
▁Bou
▁Bah
mpel
iah
prava
▁Franc
▁benda
tory
rios
▁disputa
txa
mok
atkan
▁Emp
dau
▁Ray
rec
:53
▁Pasi
▁pies
bala
nzi
batan
▁Belediye
moc
랑
OV
mobil
ICE
bach
녀
txo
eten
▁ministra
▁Chris
▁Leon
▁Angeles
dli
▁OF
reich
fas
▁tes
▁adam
▁coi
▁dugo
bele
▁Frauen
bey
▁resulta
artha
▁UV
橋
▁daily
▁cou
titi
tegi
▁stock
▁browser
tinen
My
hta
▁URL
▁pensi
▁lev
RK
▁áo
▁Mere
rý
elm
열
▁pobl
希
▁probably
▁quality
▁compara
▁Have
czny
▁location
fis
▁tol
▁mim
MER
Sp
▁celle
ρώ
▁Luft
▁Vien
volle
▁Ee
▁identi
▁Gri
sey
sker
▁yourself
불
▁Regi
▁Iar
holder
oita
▁suk
▁gin
磨
òr
▁danes
▁gravida
kkaa
▁عشر
lha
:41
▁Kort
▁Qur
vola
gay
▁styl
bong
veg
ront
广
Allah
▁Information
▁0,5
▁ovom
vla
▁CCM
slo
▁laser
寒
script
Por
▁KON
▁List
▁salva
祖
fia
nten
sú
▁sóc
stos
arre
yya
▁excelente
▁lim
▁Vì
osh
▁age
talet
▁noc
▁Universitat
rava
free
杰
2005
ษ
hub
plus
yty
ckt
dv
guard
avan
▁Zer
menta
▁kaas
mele
▁Moi
▁Blick
lato
▁Audio
oya
did
▁preciso
▁Rö
▁Hava
)))
▁Hej
▁XXI
etara
▁focus
▁1971
term
best
arkan
▁Brun
▁Polo
▁Photo
▁Chrome
ız
▁sanat
ép
yz
▁wonder
2019
raya
teh
ボ
▁laba
▁plastic
▁Beh
▁Vr
▁tank
▁Cas
▁lộ
▁mila
▁quite
▁Tho
hkan
prat
▁mica
▁KM
▁bahay
voz
▁These
YO
czu
▁pp
bula
▁roka
▁spam
ajat
cord
KY
▁Jei
gericht
▁hatin
独立
▁720
tw
esto
hri
▁Cast
wid
ifa
純
splan
gaz
facebook
▁exist
▁mom
hia
▁posts
▁corri
▁Nap
▁plen
arti
▁quien
▁vul
UB
▁kari
▁Ani
▁đôi
▁fonction
▁gebied
▁function
/7
▁glob
aggio
ống
▁deci
▁wind
▁lung
▁azad
¥
▁Để
▁valo
▁zie
fér
mí
corre
ece
viet
RIA
lane
▁pika
▁sabi
▁pria
▁sod
鎮
▁mh
▁ezek
ONG
▁kyn
▁amalga
☆
▁byli
▁demanda
ymas
▁journalist
▁Stand
▁pem
rock
▁đấy
▁comes
▁termine
zit
▁oop
gled
▁yox
▁Happy
▁nori
▁prati
кая
rice
▁Rang
▁ovog
▁utile
▁pomo
▁lệ
guer
▁Union
kide
osos
mete
▁Pis
ijas
▁Angli
pont
▁Capital
▁River
▁segue
▁Solo
world
MC
▁hoop
▁writing
GP
寺
▁Hoa
▁Rusia
undang
▁suku
nē
▁strand
▁donner
▁napa
▁wish
▁investiga
ĩ
銀
▁moder
▁mendi
▁Pode
OU
eşti
vani
▁space
▁Ober
▁begge
РУ
▁Yes
kere
▁haec
▁conversa
ukai
rga
▁tund
▁מג
▁Job
▁fen
nski
wij
:07
trze
▁tee
klaus
▁history
yak
▁procura
:44
▁hry
misi
▁citu
leik
▁koha
diyi
rud
adii
▁proprie
iyada
nari
▁maio
ança
heng
▁Bien
iston
mies
bela
Kar
▁recens
▁Lyrics
▁Lisa
kond
dab
▁youtube
ồng
▁Great
sari
tres
▁mesi
▁Vale
lege
▁member
iona
▁pren
mbah
▁vesti
Qué
▁Foundation
ề
LV
▁universal
đu
▁cambia
ど
serie
agrada
▁beg
هد
▁demonstra
lc
▁finder
▁bran
▁mẫu
schau
▁IR
اوي
zur
emia
▁institut
ốc
▁Anu
▁bone
........
saa
▁VIII
▁Fund
▁tata
amiento
▁quelli
:46
▁tanda
ätt
enzi
iff
▁speel
ળા
▁patron
zzi
ılı
ISI
:36
▁Marka
▁Ст
iOS
niti
rzu
▁pizza
▁Two
▁Peru
▁Mange
▁wal
▁XVI
big
▁soft
▁FI
▁trò
ász
Foto
▁prepara
▁abandon
=1
roga
kona
jut
▁Trường
▁Thailand
▁write
▁Messi
ICO
altro
▁『
▁Ran
▁podob
telli
▁japon
buch
▁Castell
hing
▁Bandar
pora
▁(“
▁vina
ENA
▁publi
▁Search
laid
davo
▁Moto
▁Nh
xis
▁PL
顺
▁Hamburg
▁rambut
▁Arm
▁network
▁locul
▁Hab
qat
▁ngo
▁biển
Italia
rych
▁Norske
▁cl
esso
▁Ngh
iller
园
▁opinion
aş
▁pata
nei
▁cuba
Pri
kili
:06
▁OR
ovu
normal
Cu
kter
▁segment
▁Ông
Ber
dno
vide
▁Cla
JI
mple
:43
▁Sv
deg
▁telo
▁Honda
gare
bali
▁guida
tola
▁along
飯
▁creo
▁LCD
▁dev
tiden
VER
▁gồm
▁chỗ
▁Tekst
NU
▁Anton
shwa
▁Lees
▁Mest
▁cé
▁Ron
▁regn
▁join
▁Glas
▁phản
:04
▁percent
▁obec
runt
▁However
▁obr
trin
▁polos
leid
▁قطر
zol
▁Θ
▁Anal
環
viv
▁enten
lala
ệt
▁looks
▁Marg
▁Gay
jū
teet
▁opere
▁cargo
▁Spi
kend
▁pau
▁Wild
hî
▁presa
ongan
ilia
▁patent
▁popul
/2011
ranje
▁Platz
tale
▁Typ
▁1900
▁dernier
▁hæ
▁Beat
▁cập
buka
▁inaugura
▁ping
▁herri
▁Durch
▁inspira
▁gust
▁centru
▁Jis
▁relat
vka
▁dau
▁Lund
UI
▁fro
▁Mehr
kais
▁Tribunal
▁ngu
▁Kurdistan
萨
cate
ković
Nya
tief
masing
▁facilita
▁vr
▁kaffe
▁KH
▁Bell
-24
▁trái
▁avy
▁sku
:42
▁lands
▁Spre
杨
▁vàng
甘
φρ
avad
emp
▁Faz
▁modu
tett
pop
tering
chilik
:47
▁usko
▁[2]
rep
▁2016-
▁société
▁budu
:58
▁punct
▁shk
▁Oscar
▁hell
wet
izo
chter
ktion
▁mr
dź
ife
▁Tren
▁represent
▁Mot
誠
lić
cine
▁Oct
▁gata
▁shopping
gård
sert
▁rij
zt
▁soon
▁adat
▁fir
▁Bull
▁elas
MET
▁fili
hina
▁interview
▁2561
▁roh
amat
fah
cri
▁đáp
▁Sele
▁bobl
▁lét
▁poh
▁nothing
valla
▁forse
urre
贵
antar
ager
▁Company
載
▁ngồi
used
▁Rep
▁delega
▁Minister
III
antis
▁Chúng
▁precio
▁Kina
rv
▁secundum
▁jule
ush
nding
rida
▁letu
pje
▁tatu
geni
mester
▁piscina
▁styr
▁nâng
▁militar
andin
▁lạnh
shan
▁Kamu
▁road
tky
dienst
▁hac
weis
MENT
▁gek
▁kommet
▁gau
▁SZ
▁verme
iers
▁reco
kake
folk
▁ordine
▁ponto
▁Tah
▁Jin
▁90-
legen
▁rutin
▁Total
final
▁fos
▁Chí
cup
▁Joseph
eho
▁VIP
▁stanie
▁pronto
▁Oleh
▁correo
▁rog
▁statu
▁planeta
:52
▁dành
▁mond
driv
▁Zdrav
▁nằm
▁search
▁interest
▁terminal
▁tug
▁entender
▁Pře
nz
tjie
ała
▁Sale
▁pista
bec
▁building
▁fli
▁kush
▁equipe
▁bald
mila
lings
nod
ANT
▁Mie
hag
junk
▁season
tên
▁nhé
숙
AE
▁Obat
▁fez
▁propor
▁Bí
uhu
bê
cami
dava
yy
▁Kama
▁4000
nila
phy
xer
νος
alkan
▁×
▁גל
▁alde
schutz
zə
▁misy
gah
▁22-
▁Roh
▁Liebe
Dan
Ве
izma
▁inf
365
kunde
▁lyk
Em
bd
▁autora
▁keni
vah
▁words
▁Cras
GS
stone
▁pure
masi
▁Argentina
▁OM
nade
:38
rón
ֶ
▁tuta
▁clip
design
▁chy
▁President
žno
dies
▁humana
lda
▁Wars
▁belli
▁Buna
▁malu
▁18:00
▁Más
▁ón
temp
▁YANG
tiem
▁VER
ppo
▁Games
lova
▁aps
▁vergi
▁baju
▁slim
vine
OST
/10/
cera
hó
▁VR
▁Wahl
terra
▁value
llan
saky
ombo
▁gwe
鬼
▁đoạn
▁scri
nko
KER
▁tracta
fle
ùng
▁aeg
/06
σει
▁dage
▁dim
▁wiki
ケ
ское
pila
dział
rys
▁Werk
haa
kimi
▁kids
▁debut
▁brat
UND
▁pone
RY
▁reduce
▁friend
ūd
▁Pun
▁sembla
▁Petro
禮
hane
arios
:54
▁Journal
▁lẽ
endra
PD
京
kau
kak
賞
hrad
▁poole
PN
lando
ៈ
▁Tsy
▁tard
RES
legg
ORA
▁Urban
▁given
001
▁trắng
尚
▁histori
porta
▁Abdullah
▁Hav
mda
2003
atti
▁2.1
▁rate
▁balat
▁Original
vila
tawa
:39
:56
ūr
ąż
▁Food
▁percep
▁norte
▁1939
▁milit
reje
▁millioner
scribe
:48
申
▁23-
dens
chem
▁lug
▁sne
洞
▁Markt
▁atom
▁Dương
▁1.2
vz
our
eleza
deli
▁instant
leti
▁mại
▁held
▁essay
abe
IAN
ég
ños
▁Nobel
lean
cell
▁OD
dja
kto
down
▁trad
▁feeling
▁ure
▁Sche
▁activa
▁kitu
▁Selangor
wend
loos
▁parto
▁Saudi
minu
▁venta
▁Cra
▁clear
▁took
polis
efni
▁əl
▁Conta
▁Fond
▁Rok
ybos
▁development
▁triste
inho
iler
▁kích
pam
▁isu
autre
▁twitter
▁pill
▁tenen
▁arrest
▁Никола
chá
haj
zott
▁Museo
▁mấy
▁Moldova
கர்
▁Report
▁sut
cere
ograf
▁Presidente
▁handle
bid
▁fred
iol
OZ
stas
/2010
▁Sr
▁difficult
▁oras
:08
cati
▁Hong
fung
ANDA
nija
▁hind
簡
▁grein
ikal
▁Beli
▁vare
▁financi
kket
vili
▁Ew
▁Marc
▁日本
estre
▁sele
▁Nunc
▁hili
▁viet
▁teme
▁propon
ngga
yasi
RAT
▁beautiful
roni
MG
raad
cl
▁teste
stov
▁rapide
vado
▁apart
▁nghiên
gian
▁ánh
▁duo
▁kola
tingu
▁distin
▁2011,
▁registra
▁MAS
▁Fair
▁scar
▁Petr
▁white
▁Class
meg
▁plante
níci
▁Liv
ringen
101
宇
乾
tando
asse
▁consiste
▁Sloven
▁plano
▁below
enge
ents
▁appel
▁Då
kost
背景
beh
猫
Dit
sloven
ían
김
▁Zagreb
Facebook
lą
▁senso
mite
▁trú
▁citi
heen
istan
▁gje
roq
▁discussion
▁fini
▁ngoại
▁Đông
▁ô
fly
elige
ktan
▁jar
lân
ốt
rong
▁petits
▁Tere
душ
▁deal
kkan
▁izle
erit
▁Ton
lug
iec
▁answer
:49
▁Nya
▁Ces
▁ciclo
▁study
prim
▁Tư
▁laik
▁50-
tli
▁police
▁Sei
TION
▁Male
tano
hali
kazi
▁joh
lè
vec
▁Prie
vald
pele
etin
fta
▁Nagar
meta
▁uning
laan
▁Kosova
▁quatre
rico
▁shall
▁Salam
vom
game
etek
:57
▁Dua
▁საქართველო
եյ
íl
▁bred
▁giản
▁marcha
ező
▁pelas
▁Sid
izare
▁emot
cinta
▁rasti
▁gradi
lil
▁Barat
珠
镇
▁sebi
leni
▁Hello
▁Ord
punt
bita
▁impli
▁103
▁море
mentos
mama
zing
kje
undan
tamine
hes
watch
▁judi
▁olid
haha
▁reti
SAN
▁condition
yv
▁Zum
riti
▁impo
zini
maha
▁Vu
publik
guru
▁Vers
▁Đà
town
▁domina
▁hate
▁woon
▁Deutsche
▁documento
▁Sabi
▁hehe
cens
Ter
minister
ziv
▁kyl
▁omnibus
▁chồng
esha
fum
▁bela
▁baga
▁based
▁Ann
agan
liai
▁hoi
▁Bud
biera
ITI
▁defensa
▁Fir
▁Dies
ふ
tende
saka
nö
mac
▁Anders
▁Suomi
mpre
here
▁keras
▁Wert
IST
▁valid
▁yun
bris
now
teil
amy
▁rai
vica
▁dink
▁Bach
▁Chúa
oza
tke
▁quru
atul
▁respond
▁bomba
▁cert
hlu
▁2005.
biri
print
tiu
visa
trum
▁fum
▁anyone
æt
▁serial
▁walk
▁appro
▁hé
wart
biti
nicu
broj
angka
zno
▁Đồng
▁item
lagen
▁attention
▁pago
ATE
brá
4-
esen
istus
幸
ște
▁Kry
▁Oer
▁dạng
▁personnel
▁duk
▁libra
▁critic
nung
▁barre
▁fail
iselle
▁Tras
ymo
▁fito
▁Menge
titude
RAM
▁hiểm
xin
▁dez
song
haf
▁135
öld
▁option
▁talle
rink
▁called
▁Té
▁Pola
▁relative
▁HI
▁청
▁Tul
▁handler
kách
▁poly
▁hug
▁fant
▁Review
▁vesi
mio
erie
▁kudu
sav
ể
dato
▁simul
▁lak
▁ministr
▁chini
▁6)
▁Castro
▁Seit
▁Barn
jno
▁vesz
tuan
VR
nato
ağa
iPhone
▁Bul
▁hoch
ería
iros
gub
kid
▁Ultra
idir
▁confe
gama
▁demand
▁ating
▁taking
ular
▁myself
AGA
hald
iño
▁OB
goed
▁fans
endus
▁asian
▁buka
bane
▁kho
hend
▁Mode
lagan
▁Yr
▁vendi
▁production
▁majlis
110
vyo
▁Lé
▁Vladimir
▁volgens
▁drop
rimin
▁Svar
7)
cident
▁Seks
▁190
▁mart
▁slov
▁rẻ
▁passion
▁viva
-11-
▁1963
kret
cki
danie
▁trou
CN
isku
Wi
óra
enter
▁bebas
ustus
麗
▁bogat
shq
▁semi
glie
яти
▁Night
▁feu
waan
▁Flu
▁Metro
▁Franco
▁festiv
tiya
▁Sé
▁Aby
irim
▁Gha
mpia
rine
▁Rakyat
TAS
▁yakin
istik
▁olona
nij
▁ravi
▁volum
▁175
▁Victor
▁Santo
Ğ
dza
▁107
皇
thar
liye
▁TRA
▁mollis
▁taxa
▁1966
▁chứ
▁Ajo
▁valla
Via
cini
NC
▁Vall
ISA
▁IST
▁slags
▁dedica
▁gand
▁success
šić
▁machine
▁thú
▁kanak
▁espe
ОЛ
ocht
prop
▁Law
dej
ód
▁eye
embre
laha
▁calon
▁wet
▁Lage
▁tota
NES
▁tac
▁Hasan
▁1956
quet
▁Sum
▁poner
uci
益
▁ruta
rên
BY
▁break
▁Bosh
fli
▁Esse
▁dispar
ndet
tella
FS
▁nhu
▁sled
posto
▁lamp
▁Selle
▁collega
▁communication
opo
▁Chỉ
▁2010,
▁spet
▁Vé
▁juda
▁OL
villa
▁stem
▁trag
▁Hadi
义
slov
cata
▁route
▁legger
▁aid
▁Frei
▁acara
▁nebe
urg
water
▁Poker
▁vitit
vira
▁admit
▁active
▁118
▁tack
rank
圓
SB
杜
▁ured
ulis
▁Baz
▁WiFi
▁Lle
IDE
CM
▁Itu
▁bella
▁express
▁suy
▁edes
cant
▁diu
riu
▁olin
▁stage
▁series
ew
鲁
伦
amma
ías
▁Kaa
▁egal
ibili
▁CU
ustu
shu
▁Ahmed
HP
宣
▁・
▁fia
3000
▁Mano
madan
▁fermentum
lsen
mpo
▁xả
Со
▁Tech
Vo
ORD
uwe
▁quer
▁jord
▁vài
mpf
šť
▁Dub
gging
▁truc
vast
liwa
▁wanted
▁nasi
▁sten
봉
▁Cruz
▁mans
▁111
▁Logo
▁resmi
▁tweede
sdag
▁ideologi
▁enne
lette
blick
ești
struct
▁FB
▁pc
▁rete
indo
ppel
▁bazar
▁26-
icu
ety
abu
▁object
lki
şık
▁Uu
nsko
▁whether
▁former
▁hạ
isma
▁semble
▁Instituto
ług
▁publice
ccia
▁adapta
job
▁پښتو
▁Uku
▁borg
sant
▁hear
tiques
▁benne
▁MT
剛
▁visar
▁sette
jeg
stof
▁Use
ési
議
rey
▁tead
▁momentos
ícia
mbol
▁select
▁wilt
▁Aki
羊
▁Folk
tron
▁humano
▁evident
▁across
फ़
▁Mundial
▁olet
▁dry
▁stof
aron
mind
▁kasu
ilah
▁above
▁revela
▁oud
eringen
御
¬
▁termen
▁Meta
▁Africa
▁Event
▁Nasional
▁Stefan
ピ
otu
rave
▁Cad
▁vọng
▁sâu
azio
▁bos
赤
▁Dato
▁cộng
õl
▁visite
▁unique
damas
▁İn
▁Bisa
raba
▁Strategi
▁parola
▁liền
▁sitter
▁sentiment
ホ
AAN
▁Kin
itin
pole
▁bumi
isella
shay
éri
▁meste
▁mujeres
▁Uit
ród
dú
虎
▁Cela
▁Frankfurt
empi
UE
▁connect
▁sopra
▁else
ヤ
TRA
犬
蘇
▁Oto
zona
▁lead
▁gamot
▁wang
▁mobili
▁rende
▁معا
▁argi
▁Pus
▁đông
▁comida
▁sõ
▁pô
▁loi
mem
▁ordu
TAR
▁gaur
័
pote
LM
-03-
ligini
metro
▁asked
旗
ieri
dada
▁naziri
▁peaks
▁matin
komen
▁rú
▁six
▁Popular
iền
▁seems
▁dest
▁fasci
aris
ukat
▁madre
holde
inum
rand
ukas
stell
++
▁Nan
adresse
ivu
▁probabil
▁bih
▁legend
▁hại
▁zon
nieks
▁alter
ṣ
▁Šv
„
kni
▁Raha
광
wd
▁sibi
▁Mix
eil
MT
▁hòa
iten
▁Lö
▁newsletter
roka
▁Puntland
▁Did
▁Raya
▁skuld
GT
sua
▁travers
160
▁Album
▁Thái
▁issues
rebbe
▁bry
LP
lett
▁Skal
dê
臺
ロー
▁apare
mbak
▁dara
:51
▁consul
▁ψ
dent
機構
base
▁2018:
▁plate
▁tornar
▁Vitamin
▁Legg
▁compar
trag
itve
▁Louis
▁Tây
▁Gut
ander
▁stig
edo
▁mimi
bă
etus
JU
tici
▁vợ
▁BAR
mea
▁ergo
▁Temp
竹
▁aura
▁separa
▁yay
St
▁Spar
▁range
▁zlo
rki
▁leng
▁decidi
CL
▁môn
▁levi
sters
▁bho
▁referendum
0.00
▁aero
▁strong
▁Ше
▁voy
▁ชุด
▁Quy
▁seconda
▁Fru
▁wegen
齐
▁odo
ced
▁México
▁lip
▁cuerpo
▁Đây
▁jur
antur
cun
▁Día
ərə
▁Teg
ρία
niji
▁spise
▁palabras
▁diploma
▁giro
ettu
▁fent
▁ép
rno
悪
vum
▁Mehmet
▁Morbi
-23
pili
disk
▁celebr
▁Helsinki
▁remember
▁lacinia
quel
▁социал
▁123
▁Hill
wek
▁Mora
klop
孔
▁bổ
▁fitness
kate
▁FIFA
ACH
verse
▁100-
▁Sistema
hlas
▁Рус
▁Smith
▁cast
RR
▁Cookie
▁kje
alin
visi
▁mende
slut
▁1942
essen
zte
lico
Gi
schrift
▁tais
人間
▁mặc
▁seri
▁spod
elin
▁Finans
庭
▁Bé
▁groupe
▁2009,
▁force
▁flot
▁ekip
eda
▁nua
▁precios
ucht
▁28-
▁sug
▁WC
▁Ari
▁Toto
▁neuro
▁Superior
▁Colo
kvi
jezd
▁vision
gim
▁Mill
tely
And
▁tried
uba
▁federa
zional
▁pey
azi
▁Ion
hak
▁franc
▁rev
▁sabor
body
▁Nike
▁tenta
Gra
rve
▁Pří
▁gula
▁patient
▁Pai
▁relativ
▁choses
nesi
▁Ela
▁tits
rce
▁oblig
▁nguy
isu
▁tuyến
▁barcha
image
▁polu
▁porod
▁Asi
▁amen
韓
▁carro
▁Tev
▁molestie
fana
▁Kate
バー
▁Pou
汉
cta
▁pages
▁Dob
às
łę
▁panta
tasi
Book
lna
地球
階
▁Micro
▁betul
iens
ssing
隆
▁HIV
▁institution
¿
▁SV
bana
▁devas
▁crise
▁Spring
edel
▁trots
▁région
▁enorm
▁veniam
▁living
▁Huawei
kontakt
▁gruppo
aldia
jka
oku
ớ
▁uh
▁awak
jati
▁veta
▁Bundan
▁Giardia
▁pina
▁deben
▁naturale
BR
lare
▁rights
▁concentra
võ
Auto
-09-
▁Erdoğan
emu
▁Cultural
HS
▁maximum
▁wide
▁sân
▁tul
▁Tir
▁arme
fak
▁Lanka
lein
▁Privat
▁Edward
▁coming
dw
zig
leva
oil
undi
▁seba
shirt
▁drift
▁Siya
jø
▁varius
adka
UF
▁Scr
徐
▁Ida
▁1917
tym
orden
360
onder
▁geni
gru
▁Kiel
▁1.1
▁haven
▁gondol
▁cest
satz
bereich
▁ত
▁amigo
▁Bắc
▁106
▁persi
▁bau
ganda
▁01.
BL
▁veg
▁pros
rons
▁Laat
OB
▁10.000
kuma
sikan
xir
▁separat
sioni
mán
▁lãnh
heter
baran
āja
씨
lám
.9.
▁Gott
cado
▁avion
▁Toyota
▁speed
▁Hoàng
▁iam
weni
yra
ixi
▁Britani
▁cate
imos
raha
umus
Ế
▁lú
▁gama
wei
rés
nç
▁mach
elta
▁Premi
▁denuncia
▁Today
±
SF
▁fyr
LED
▁financ
ttava
vii
▁application
rete
enka
▁Arti
▁nép
▁1964
tanda
▁Hollywood
▁articles
chung
▁oman
radio
▁retour
▁envie
aram
▁Må
chia
▁Seg
▁Thiết
▁pano
▁Thế
ild
▁pied
▁intern
娘
▁Room
▁MC
hav
▁Station
ตะ
▁dob
bant
point
usan
dog
marka
▁thoughts
saf
▁potential
▁soha
bly
spek
eign
▁hidro
ying
▁solar
▁fragment
▁Esto
endur
tzi
▁chan
▁1962
▁Gül
TAN
▁lud
▁Marco
▁licht
▁pac
▁sinu
uak
▁Muh
▁gioco
IH
prast
▁plans
▁$1
▁gid
▁Kore
▁Học
▁borde
nker
▁Rem
황
bour
▁Denn
▁kabi
kava
▁đêm
qq
omat
▁Wind
uki
▁Bonus
▁Garden
brug
AKA
▁Check
doo
oren
▁Thor
▁quest
▁organi
▁Flo
jeva
▁3.5
LAT
津
sila
▁rette
atok
▁verte
▁Ves
▁susu
vete
▁AI
rde
▁Quan
▁merci
▁products
ây
▁डो
▁cell
▁finna
▁spis
▁ligi
▁aega
▁rerum
▁IX
zela
▁(30
03.
▁fier
uman
▁constru
▁ling
▁Hr
▁Sok
▁70-
nok
▁Besar
ipu
RP
▁Messenger
▁Haber
meyi
nare
lian
TN
▁sant
uno
2001
▁Kil
ensi
▁centros
"?
▁passo
ksen
▁Nic
▁reto
▁Christus
glo
▁manipul
こう
ิง
▁batang
Kom
▁caption
▁soc
SR
inc
▁tiro
▁lop
kota
vaja
▁Jau
AO
stry
▁gros
▁dub
lele
cente
▁scho
▁Rights
card
▁yar
▁user
cano
▁esca
▁quelque
gile
▁nhẹ
firm
problem
çar
voc
▁pochi
WI
ader
▁Marina
▁blanc
▁cab
▁kaina
patr
▁vidu
▁Federa
pk
DF
▁Wikimedia
hlo
▁Giáo
▁Secret
▁kilogram
▁Çe
END
▁Hoo
GEN
kati
▁rex
Op
忠
▁subito
bhi
ILA
▁exclu
▁origine
▁Pani
▁Ash
ener
▁kilometer
▁beni
▁XI
▁uri
▁Wood
žan
▁Dem
▁Salon
▁Dani
▁dose
arki
▁profond
NL
▁electric
▁aff
kne
-2016
read
vene
▁hinter
▁confort
▁Sü
onis
preis
▁concurs
ceni
▁util
▁fand
▁koa
略
▁mềm
▁Matt
liya
▁Rau
▁Sports
▁Alter
App
tual
ismus
げ
▁cama
▁bril
▁Cine
▁Malayalam
辛
▁XII
dna
vī
妹
yda
sian
▁common
▁ohi
▁Cons
▁sara
▁permis
▁posterior
▁giấy
▁sali
▁dó
ндар
jf
▁Vietnam
▁27-
▁categorie
etud
send
▁Ling
▁Palm
jed
▁Maga
LG
▁gwa
▁uk
awi
▁jornada
▁actor
imen
▁ministri
richt
profit
宫
漢
▁vestibulum
ellen
duc
▁mb
▁reng
▁luke
▁rink
self
▁Hard
ziale
▁early
igita
▁babes
gini
▁nava
▁Hir
▁drev
ljub
▁magnet
ondo
▁ван
▁Wiki
▁Dj
180
owski
▁thiên
▁Asa
mpar
▁Mé
Ac
▁subven
ML
▁successo
▁Republik
▁posso
DB
▁thiện
ủ
apan
fast
▁vehicula
▁Cuba
乘
▁nudi
▁musica
▁4-5
▁salle
▁typer
mato
▁situat
▁leben
▁convoca
jena
▁Help
glu
▁rever
▁tulisan
▁bete
▁watch
▁tuần
▁thuế
▁almost
pf
ğı
▁concurso
▁velika
▁tash
▁confirm
Ak
ovati
▁đóng
▁Dios
▁gl
bija
▁pick
仙
tyd
▁Bush
▁frisk
▁lyg
χε
▁kera
ディ
▁PSD
▁innhold
hua
瓜
.11.20
▁politici
▁reda
▁gá
ngan
▁loka
server
▁Rand
▁jazz
tulo
▁bist
stes
dex
▁migra
▁Rin
ndro
ior
Ре
▁viti
ライ
▁(25
▁antal
bati
▁SAM
▁maana
▁Lov
▁kyk
KB
▁technolog
▁HS
scar
▁Liverpool
ranta
▁treatment
▁stori
▁resist
▁menang
▁Print
▁cai
▁Kum
zom
▁maxim
▁lata
sec
liter
versi
▁Kok
▁Teatr
eros
▁koop
▁1080
ética
▁aire
tré
▁KR
▁soi
▁Thị
▁stabili
▁parametr
▁gange
▁berse
γο
▁taxi
▁locali
zwe
▁introduc
▁Jose
liber
04.
▁Zato
úc
▁titre
cce
material
▁California
▁vole
shte
▁adapt
▁oare
▁Bà
▁Gir
▁Anche
▁vòng
▁Asta
▁duda
▁operator
▁Waar
▁mulle
▁sund
▁80-
▁taken
krzy
oties
SKI
вна
▁Christi
▁fana
ONA
quí
▁dấu
▁titular
risti
▁Sind
▁leuke
uge
qin
trac
liza
gården
▁12:00
▁Cách
brani
▁kare
▁guna
▁Arena
▁modell
▁Kab
▁Koko
▁Ung
▁=)
▁db
gruppen
rare
kset
▁section
3/
née
▁Trin
▁Lady
allah
▁grada
▁câ
trof
▁dada
▁NASA
▁Isto
▁hír
▁tanta
organisation
mble
▁either
▁omnis
▁Christmas
hesh
▁Aktual
▁coas
▁Nú
▁Cristo
sicht
iar
▁profession
▁rais
▁mies
▁pesan
▁Ola
▁Computer
▁speci
klu
▁máu
怀
/2009
▁Là
▁Parc
▁grip
biy
malar
▁Ave
same
-35
▁Batu
▁Tài
▁Janeiro
▁1%
▁1947
▁dado
▁balance
▁Joe
▁Hag
▁Brown
▁colori
▁Még
▁forward
▁simula
dong
▁Fara
▁Regel
▁tradition
elim
igne
▁bandar
▁Alles
▁Pontevedra
▁Access
▁lief
mbung
▁Abend
▁carga
spil
sidan
▁roky
▁PKK
▁indir
boli
▁SIM
loh
▁jeunes
jis
汗
host
baz
▁berg
▁favorite
bbe
▁Gaz
▁Chor
▁Dev
position
▁Александр
▁Oni
▁1.000
jna
rott
▁soldat
ivos
inig
tych
▁ova
▁Kuch
▁Planet
▁niz
▁clara
gung
▁several
▁deposit
▁escrito
池
būt
▁alami
ify
▁Gem
▁kek
jave
▁thái
▁Zin
▁4.0
face
akat
▁satisf
ván
▁Pela
▁1961
▁Sö
▁Dla
lede
▁사랑
ポ
▁tịch
itzen
CIA
▁chá
lera
meti
▁Sap
察
lado
▁1943
▁college
▁Who
▁Miguel
▁foli
▁centrale
▁vah
▁Williams
▁Schi
▁plein
▁wait
tone
▁except
▁Zam
▁Kak
زه
▁medal
rija
ison
▁Wan
▁hơi
▁positiv
敏
▁mafi
▁Lands
▁khám
▁sty
▁jambo
▁buru
▁quarta
▁Mall
▁Svet
▁Fakt
▁320
▁nationale
▁Cinema
▁personen
▁sales
bida
▁Services
isesta
▁trav
▁Mati
ゴ
Saya
▁Direkt
▁Groß
▁mingi
▁Agri
▁Rechts
mita
▁farm
▁pulvinar
흥
sberg
iladi
vija
MAS
▁Dou
tegn
▁Version
szk
Ci
▁taraf
ugi
cá
scher
kasta
APP
▁pha
▁semplice
▁Zukunft
▁Chương
ñas
▁hipo
▁delta
itia
▁Ting
▁Cari
្រ
▁arv
VN
ION
▁less
TRO
▁Compostela
▁crede
▁Fas
패
▁Rag
衛
ezh
▁BB
holt
pela
ソ
RD
▁Mera
▁manter
▁memor
gom
bring
▁phút
▁Thiên
sole
▁Ary
▁stabilit
▁lunch
▁Bitte
▁Font
勇
hada
▁Thủ
Sha
yli
vidi
vido
▁efficace
▁hero
▁lán
▁
▁xanh
▁amplia
▁investor
▁surf
skr
▁otur
▁Xbox
▁Try
▁weeks
▁generale
vern
onto
drift
▁classifica
-04-
/11/
▁fuck
rito
▁excellent
zos
ardi
Sh
▁altura
▁Ligi
tust
▁(16)
▁intensiv
api
code
Во
▁negative
▁poster
kva
▁facial
▁Cin
▁alder
▁koppie
поль
▁ille
pendi
▁Gin
▁Viktor
pto
kwe
▁jel
style
▁teles
▁Ovo
▁loop
▁Dad
▁renova
tím
▁lut
EV
àn
▁XVIII
▁veni
ulat
▁spri
▁dress
▁demi
▁wetu
audi
▁19:00
▁17:00
▁operation
ADI
▁People
pera
▁Kauf
enca
▁infla
▁ưu
ctu
wig
DVD
ół
haya
cía
▁voyage
▁contrat
strategi
arin
DT
▁Ś
▁Place
rias
vise
dud
▁Tol
lema
▁Point
▁tuyển
▁Mina
▁Musta
▁varie
ρος
ick
EJ
▁Shan
RET
▁Cul
rona
wil
gust
▁Dog
▁dinge
▁ABS
ainen
▁Ideal
▁hivi
▁stap
▁Fro
czki
club
Bir
▁Dh
ability
▁amount
▁venda
okon
▁109
sept
▁reuni
▁2.2
▁jota
▁Laura
VP
▁coma
▁Lugo
tips
tzer
▁wag
sels
▁spiritual
▁expect
▁rare
▁brin
▁timu
tetty
tyki
▁filmer
▁prise
▁Rid
▁Oro
▁ddi
pore
▁bons
朱
▁tránh
▁20:00
▁magazine
▁ged
▁februari
▁circula
PF
▁Belgi
ёт
▁operativ
▁Bart
ification
pana
▁bibe
▁feil
▁bied
ngar
▁1914
station
▁redo
UU
泉
cking
▁Reuters
inos
ikh
▁indul
fred
▁lễ
▁Fab
duse
▁reclama
▁practice
▁independent
dés
▁stie
graph
▁gestion
ADO
▁lagun
▁mention
▁Badan
▁Hü
▁pian
asis
verti
▁Rie
▁cross
▁cere
ingin
忍
raja
ndal
entia
▁posse
▁koi
TL
▁Rim
▁Gur
Æ
▁된
▁obro
хүү
▁posa
▁dô
熊
▁Rap
▁UMNO
醫
▁Escola
▁dildo
▁1.3
▁Vet
▁retra
quot
irin
▁Bey
▁umat
▁spela
▁Thời
▁2%
REA
cek
rman
novi
▁inta
rash
rick
rige
▁Steve
▁superficie
▁Hitler
▁chăm
▁Asociación
▁toi
llow
aide
▁Komis
▁vient
▁troppo
gangs
▁Mike
mper
liko
▁Jaun
each
▁assume
papa
▁bazi
(1
▁deles
▁monet
▁Grupo
▁Vidu
靜
▁dè
terne
▁Gegen
▁copia
▁Friday
amas
2002
tics
▁mater
▁2019.
ール
▁MM
▁noche
▁Cru
▁details
vri
▁Hold
▁ipse
▁science
▁renov
▁Siri
▁Filip
▁lungo
etu
drom
enek
▁mutu
▁tiểu
▁Onder
▁Januari
premi
▁winter
▁meeting
▁cart
▁Refer
▁1959
▁blu
ferm
Que
prend
-40
▁tuz
xwe
tensi
▁Gambar
▁sửa
raka
▁Phone
alia
▁divers
jaga
▁Forma
▁(18)
masa
▁bago
czyn
lyg
▁liker
▁handi
▁Cr
▁Să
▁tempi
▁gim
▁applica
stoff
sci
▁undan
▁Tea
irani
▁Akan
▁especially
▁DS
▁Guð
\
zky
▁salam
GH
▁stuff
▁comer
ntang
楽
▁(@
▁fruit
▁boven
▁pretende
▁1946
skai
hej
▁relation
müş
kaya
▁fringilla
▁Junior
▁Java
▁prior
▁double
▁liquid
▁1938
▁eus
▁CP
▁haka
bom
haal
tiche
▁Dream
ernes
tryk
▁Hér
▁Turn
▁worth
▁Drag
yama
dalen
gong
fald
▁Jim
BAN
лина
ātu
▁flam
dung
▁Mut
̃
glav
▁Premium
▁Luc
▁Aziz
▁Apr
κλ
▁2030
▁altera
▁đem
china
▁lapse
gard
▁Edit
▁Antoni
uddin
anam
▁popis
▁Surat
dyti
▁mân
şu
USA
▁Kredit
▁nghề
▁nhóm
bler
frei
gate
شهر
nê
▁komp
▁SL
▁thẩm
▁morning
län
▁Centrum
▁circ
▁sorg
▁insurance
▁Pau
▁Bata
▁imagina
▁author
sons
▁Ils
▁khas
▁ota
▁bith
▁comparti
▁testimoni
▁linh
-50
▁Lou
się
oper
▁anne
invest
▁Strand
▁demonstr
▁reproduc
▁Kart
Os
▁hậu
▁uli
▁(20)
▁Way
Val
▁exam
灵
azo
▁chấp
▁Stop
UZ
thro
žil
tibus
▁tiem
▁cesta
▁misi
grafi
▁Está
rasa
amin
▁dobu
▁viu
rait
▁zat
▁Want
▁Yi
IRA
amour
▁gua
▁voa
▁Dominus
tium
▁cale
▁tête
sø
Sta
ince
OG
fá
▁(24
▁ganger
▁apre
▁flotte
▁Sound
mysl
▁jaro
▁Én
made
toka
▁bac
朗
atay
▁Vam
▁viverra
erung
▁Berita
▁civile
▁Mb
▁copil
ữ
plin
lls
▁suggest
dila
▁Merkel
▁Plu
▁modus
▁CAR
▁Research
▁sodales
rano
identifi
▁collection
ujo
Ý
▁Nó
prem
gave
▁Demo
tinis
lleen
▁correspond
tră
▁Haut
▁laban
araha
stant
raga
▁depende
▁honest
▁Year
▁mum
▁Fram
ington
LIK
▁merge
▁kapu
▁confirma
▁ngân
imis
zah
震
▁ró
▁linea
▁suc
▁Bluetooth
Ek
▁América
ENS
▁dues
takan
nemu
▁1958
▁verd
▁religion
▁grib
▁DIN
▁Jou
▁đào
cciones
▁lhe
▁petrol
dub
▁pace
▁baja
▁boca
▁Göteborg
▁fald
▁progress
▁beat
▁Direct
KL
Tur
▁alcalde
▁Oxford
sher
▁60-
▁Zimmer
▁korda
agar
specta
▁tanke
▁german
ITO
▁Map
▁File
▁2015-
läng
▁tendo
nist
▁mother
▁dl
▁italiana
▁Tempo
eru
▁teras
▁forint
▁amici
▁monument
▁Schu
▁pinta
▁Leute
leika
culos
ekben
linn
tuna
oki
▁verb
paz
OLA
▁fabrica
▁emis
▁entry
▁mesec
▁Ngày
▁Alexander
pero
▁workshop
▁Anwar
▁oba
fold
▁Klo
▁dòng
▁soal
▁650
▁Plaza
▁στ
▁books
robi
wers
▁Latin
▁latest
▁JAV
▁simply
öz
ikas
▁vila
▁Bursa
ói
▁Luna
▁pump
1.5
liau
▁Indian
▁GI
▁Şa
▁nhật
▁Activ
▁Giá
gör
▁Bron
reis
▁tovar
teks
XX
▁Petra
▁amal
▁Seminar
▁Rud
bhar
▁participat
"...
pula
▁kirke
▁gez
▁Hra
rca
▁lia
鳥
▁Trần
hogy
▁Tack
▁Kont
tives
▁Raum
bó
▁terrorist
▁Ř
▁quinta
▁dala
▁prob
tany
▁migrant
▁เอ
铁
▁members
YT
▁Klima
▁Johannes
oks
ennus
▁khăn
▁Space
seri
▁Agora
▁français
▁Swa
▁millions
▁images
▁VM
▁Sabah
▁5-6
DY
▁kayo
▁Document
lased
rima
hev
▁sensor
▁Golden
hdi
▁ên
▁shp
▁grau
jara
▁pake
▁155
syk
▁stod
ners
▁letzte
▁Hell
▁Education
▁tall
▁Lake
▁Nje
▁lapsi
▁Địa
▁thuận
▁cafe
heti
bav
śli
▁filem
▁minun
▁wit
詞
▁ơn
ventur
posti
▁necessari
▁miles
▁República
▁Abi
LK
▁tabi
▁works
170
rust
▁Hanya
▁POR
cela
ndang
▁rather
mone
▁Vide
brand
onia
tira
▁Nett
tón
▁Najib
▁Lib
▁rica
▁bilin
▁Vá
▁kampung
tris
ordina
onat
▁Magufuli
▁2008,
iunea
GAR
tional
ingan
5)
▁algum
baya
▁DAR
▁halka
ANO
gii
▁parking
HAT
eita
▁tube
▁dark
ベ
▁Ronaldo
Windows
▁dàng
ISS
▁ler
tatea
▁1937
ldu
ensis
osto
▁pisan
ysty
▁customer
▁vote
CT
▁modi
baki
ool
▁Moskva
▁Vär
▁territori
▁habitual
▁Festa
txe
ぐ
organ
▁Organiz
▁GT
some
靈
▁Hang
▁maju
vič
▁Kari
rono
▁Ath
elek
▁Hit
meno
SV
▁tat
Sport
▁Bangladesh
All
▁stories
▁gamin
dania
udio
▁XL
▁Pang
▁ready
▁barri
▁koro
matik
▁Professor
geb
▁góp
▁Turki
▁Firefox
bî
▁loco
▁near
sud
sses
ễ
GU
▁current
▁toll
▁aspect
atore
▁gap
ranja
▁Pont
lati
▁pedi
▁five
▁Single
mei
▁strip
ẻ
▁bersa
-02-
stit
cante
իք
łów
▁tanya
▁Front
.6.
▁Doktor
▁Dịch
▁copy
100%
▁أد
▁steg
▁melodi
ương
bito
mach
▁Feb
▁chor
▁doon
▁Informati
itte
nast
▁sincer
▁context
▁Scha
▁Mada
▁MAK
▁Silva
▁abs
Tech
▁Living
eš
▁Case
▁Mittel
usten
▁conforme
OD
yahoo
▁tsa
ář
雄
▁pene
sag
▁immun
▁München
▁coin
▁Erre
WO
▁Ard
▁Prop
▁collect
tyr
ull
▁tort
′′
▁PEN
▁Ep
▁pack
▁Vara
xen
▁acid
▁itin
▁Quo
▁recu
ester
STE
reti
▁pelle
▁rival
▁6000
▁archiv
▁mw
▁Alma
sand
xxx
rino
仔
▁Sper
▁fis
htu
140
▁population
▁Mila
▁meil
▁opt
▁Ante
åt
廣
▁itd
ardo
beg
▁Optim
ody
▁hale
▁Pere
▁Senat
▁Qi
130
▁(17)
festival
odu
▁Body
▁minor
▁seker
▁Institute
▁210
▁11:00
iru
▁exemplu
rene
иров
▁grade
lagi
roda
▁bhu
▁diabetes
DAN
▁Sør
陰
skip
▁kolm
▁sung
▁troj
▁Kale
▁keng
-06-
臨
▁oc
kiel
▁padre
▁Nota
▁Biblioteca
▁Taj
▁mắc
▁Teen
Star
▁fair
▁Why
IVA
ぎ
▁Tại
▁Queen
▁display
▁Sobre
▁choice
йл
▁pesa
始
▁presu
107
itto
itel
cto
▁Lata
▁2560
▁Citi
▁inferior
▁VS
▁datu
/16
▁phi
▁enga
▁starter
▁posted
▁recon
gula
▁medicin
▁audit
▁Ax
▁Desa
▁haver
▁radu
▁2004.
▁mear
▁blank
wiz
AKO
adura
▁estu
▁Hàn
▁baa
▁otel
▁mín
livet
/09/
▁dikt
ncias
ński
▁homem
▁Training
ört
grade
mping
flex
inus
▁Mok
▁probeer
▁presenti
goj
▁Klaus
▁1957
▁Sở
▁ples
Â
▁raison
▁Saj
wę
muo
dici
▁storie
▁rencontre
▁pote
nî
▁Mang
▁dạy
▁personali
taire
▁Young
▁tram
▁lec
▁Integer
▁problems
ryn
team
▁Kül
fik
▁jarri
icht
▁lắm
▁buk
▁ED
▁stát
▁sma
▁qad
vizi
▁delo
Dis
▁field
hood
üş
▁Kris
ăng
하세요
gê
▁près
▁Alta
▁Myanmar
pida
▁1936
marin
송
▁Prim
▁tầng
▁Chelsea
▁Natal
prima
āta
▁financier
▁Jordan
evo
▁studia
▁hands
dık
▁mujer
íu
▁baha
▁flug
▁beau
tile
▁homes
▁nền
貓
fed
▁Alan
▁kéo
▁oy
▁Essen
▁Sarah
▁Guide
▁XXX
/12/
illas
▁Jong
OA
▁(21
torul
yur
▁carbon
▁amazing
ury
▁valida
▁fui
▁listen
▁acce
MD
haft
▁quay
viti
ipi
▁aspira
▁sớm
▁Bun
ieron
▁places
▁răng
▁scop
▁camping
▁Совет
unge
spi
▁wrong
taki
▁heraus
▁Oficial
▁Gent
action
▁HER
Biz
rudi
wick
-07-
冠
cios
▁lux
▁viol
▁EK
▁title
quant
▁Michel
eann
▁mori
▁nola
cir
▁4,5
▁Kraj
▁prostitu
pê
詩
reise
shik
▁calcul
atoare
▁pratique
▁Camera
▁yapma
▁Head
▁colo
▁sauna
▁Cluj
▁passen
▁statut
▁Hãy
▁Bucuresti
▁definitiv
▁needed
deel
▁stron
jil
▁Bož
▁interne
临
Inter
▁invit
▁soir
Kur
▁aroma
skat
/15
桥
cena
▁ade
cione
▁Introdu
mpu
▁joj
-2015
▁114
zani
muka
▁jaz
рки
▁usque
cino
柔
▁policy
▁CM
fare
▁FO
laste
vera
▁blind
▁politic
▁scan
▁reflect
daya
▁Edition
tapa
▁elev
▁kafe
plex
▁Hulle
▁Base
▁escolar
▁Lý
inq
llos
▁pede
▁XP
▁Çin
▁Cina
▁minuter
lost
▁manje
ative
▁Gara
AND
▁strany
itati
▁Osa
▁Elektro
▁tempore
ndis
▁resep
▁GE
izat
gani
▁handling
▁gesta
cium
▁joan
▁marg
RON
edit
▁dili
▁Hau
tune
▁Erdogan
▁nomine
oby
▁Kuva
onin
ibo
▁Lars
issima
LING
▁latin
洪
palli
▁panna
▁3.1
▁Ott
ały
▁defin
rovna
350
▁tih
ofer
▁regres
▁transmis
EMA
▁vendit
RB
▁Lim
wanie
▁Muz
miss
blik
tzera
▁Arma
▁ful
mile
▁mall
sman
hva
KG
status
andu
pid
▁GmbH
vun
▁Henry
▁zero
icky
▁Dim
▁discuss
▁incendi
▁manipula
/18
fera
▁mỹ
▁ort
▁Canon
▁Beth
mare
▁blot
斗
kong
▁dầu
▁lod
▁Rolle
▁Kli
▁Girl
lci
▁IZ
sika
▁550
▁bhe
▁ion
otti
▁Nadal
agra
▁SAN
▁cep
shish
▁pourquoi
▁tlak
▁cup
▁build
▁granda
▁ovu
▁Serie
▁Contra
▁Sua
új
soci
bba
jima
▁Ż
▁Ezek
▁abu
▁Hala
oce
katan
▁neben
lacht
▁Syd
lko
wania
atto
▁Expo
▁sov
▁board
mö
▁gé
အဖွဲ့
lili
▁thanks
DK
gruppe
▁civ
▁Led
▁Hou
Av
nett
▁despe
lion
嚴
▁alba
▁Wolf
▁Tara
zane
▁Kem
▁eldre
▁occupa
deling
▁Pit
▁balans
▁karya
▁Roo
▁kep
▁Dewan
▁pige
▁commune
▁incident
▁Bere
▁Tid
hadi
▁Teis
▁Konu
loven
聊
lendi
▁mùa
URA
nique
sö
▁1949
▁residen
▁ley
loge
pse
lno
tla
▁premio
dui
鏡
credit
▁Hip
▁trì
▁structure
ât
▁জেলা
mant
▁abon
-01-
zele
eter
▁sexa
njak
րան
trá
uota
Ph
▁一
fro
telu
IJA
▁Mou
cea
▁race
zania
▁sound
▁CEO
▁adet
come
▁responde
ucci
ẹ
▁reden
▁respira
ovom
dova
▁Hata
▁rey
kene
▁dif
onym
mendi
▁Aika
▁Merc
▁cant
▁magas
▁Олександр
▁116
▁Ourense
▁Aja
▁jardin
▁anime
▁schw
▁rab
2/
lwa
▁KAR
ilin
store
▁departe
▁lỗi
▁orde
illi
祭
▁kaka
/01/
▁Helsingin
▁Vei
▁shows
riak
delt
fico
erde
baan
íš
▁flor
▁miễn
DEN
eca
ifu
▁Rusi
olle
▁Jed
▁bid
-100
sap
sats
▁quanh
▁suspend
▁muid
afa
▁nghỉ
kolo
Ben
kini
▁vaj
▁1919
▁Ör
▁musim
lichkeit
ampi
▁ngờ
▁Hải
jani
▁Mia
▁Ș
.5.
RIS
▁femme
UTC
cient
bic
περ
ヒ
덕
▁marco
▁Soci
▁daude
▁hiru
attu
▁České
weise
▁Damit
zwi
▁safe
▁molts
▁navig
▁UNESCO
qul
▁(19)
mico
דות
▁Rot
zung
▁Maja
▁Jahres
術
ssy
英國
▁Christ
▁Cá
oitu
▁Svenska
▁Temple
nav
▁zein
▁Baca
▁besluit
bron
▁XV
más
lann
▁Augen
ctum
hami
▁publicat
▁psych
▁punti
rimi
▁Quran
韩
▁inside
color
▁Onze
▁TIL
ilio
platz
▁Ngoài
▁klaus
▁Bán
▁Osman
▁Glo
▁tải
spir
diti
▁Jako
▁kufi
bine
▁interno
▁Dro
▁tranquil
▁Ahmet
zaj
nili
arne
linna
▁eyes
▁chóng
▁Stad
▁LV
▁sexta
laden
magan
novo
rando
▁contrario
▁eerst
stelle
▁Einsatz
typ
▁Primer
▁29-
/07/
haan
FR
▁Gang
dist
▁MW
▁Selamat
▁filter
▁coba
bilis
▁CL
fter
▁Copa
▁tướng
▁amp
inform
▁manga
▁Condi
▁Corre
wagen
version
▁guarda
pali
순
jame
keen
▁Narod
▁block
▁krig
▁agro
λος
zuk
▁Gesellschaft
ttle
▁Drama
▁cerc
ゆ
UMA
▁kalan
▁Germania
ater
icas
▁allergi
YE
quia
赵
许
▁giornata
▁thử
koon
Ob
▁elmi
▁Technology
▁Split
exe
lete
▁2500
gano
āra
▁koste
▁hombre
URI
▁mõ
▁dram
▁occasion
▁gert
▁colon
▁mandi
▁inspiration
▁conduc
▁beach
ught
掌
▁milieu
ử
▁Maxim
dale
▁STR
▁arc
▁hui
tih
ERI
styr
New
▁ambos
▁camino
ried
▁Uusi
▁termini
zima
▁sám
▁Sida
▁Bảo
ndam
HM
ikko
lopp
▁Sku
ちゃん
koko
LIN
rip
▁Lalu
▁koka
▁clean
lako
▁caro
紫
inf
bka
▁Aba
reo
▁Rey
▁Haar
▁Unit
gén
▁Gü
pani
▁lenge
▁Wah
tub
105
tallet
▁nhiệt
▁woman
▁Take
Mon
trat
▁Francia
▁compre
▁States
dring
bern
▁passage
▁fou
adora
köp
LAS
▁heil
มะ
そ
MN
zga
▁greit
▁lese
metra
▁2003.
▁fidel
▁Lev
enc
▁hakim
tail
änger
▁Bár
▁yurt
10%
GG
▁Inf
▁tion
▁ard
IJ
ndur
ober
▁Borg
▁zag
▁crema
▁Hita
sore
▁tyle
year
jp
▁magazin
▁shahar
▁klin
cole
dlu
▁crime
gent
▁priv
rings
▁bois
▁IM
buri
▁Parte
▁Hul
▁lime
▁RU
▁Devlet
vall
resti
▁monte
cele
▁language
▁pomp
werp
▁mass
▁Seu
ruga
▁stadion
centr
▁profi
roman
saya
▁reale
▁Qar
▁lire
▁crois
▁Adrian
giu
áci
▁kron
▁nghi
ttes
irana
▁1,3
▁Kep
ORI
晓
▁lĩnh
▁equip
▁Gene
tame
▁Tit
▁Stro
dut
ache
▁ming
▁protesta
▁Stone
▁Sup
▁Bunge
▁Then
▁meme
act
▁rota
▁lạ
▁Forex
sif
▁Aman
▁positiva
▁likely
▁belang
weit
▁NH
孙
▁County
ilise
▁qan
ucu
LAH
lmas
ilis
▁Kini
ひ
pito
dão
lisa
diagnos
▁poeta
મો
▁porto
pec
▁desen
▁1955
khu
▁Olimp
scrip
volta
mans
▁rele
▁Ret
▁mbe
ART
LES
anni
▁remain
regel
▁cz
matic
▁chiều
uwa
vieto
kent
▁Aqua
▁longa
AMI
▁Buy
▁Fred
тики
▁Mand
▁ecclesia
VS
▁Lar
bete
LEN
acqua
vle
▁Mua
▁death
▁dinero
▁Pier
ʼ
▁Ley
▁Yap
how
▁Fernando
▁vies
▁napi
▁waka
▁Umoja
▁soru
tahan
gry
veli
enten
ieji
▁PHP
▁omen
CB
▁Pháp
zhi
girl
ified
▁Noord
▁122
ruf
▁Ses
master
▁femmes
cultura
▁Metal
mane
デザイン
▁events
▁reguli
-08-
▁viso
▁jane
▁nhi
桃
吴
▁morto
▁Anadolu
▁Sada
PK
▁Wol
}}
spiller
lhe
▁klip
▁Alp
word
agh
梁
▁Zur
▁روحانی
▁heter
xos
▁ignor
▁Lord
▁spend
sburg
евич
▁dà
▁ABC
▁Są
▁ISBN
week
rub
▁Futbol
blu
▁neod
50%
anlar
▁comfort
technik
LOG
▁sista
MAT
issimo
▁trin
chel
▁fark
▁riba
▁novela
▁Noor
▁Toe
▁Moja
rinn
▁istri
llon
▁Tablet
▁Loo
ruz
▁korak
▁buona
▁Vod
▁Eb
▁Haupt
▁tegu
ىز
▁donna
▁glass
▁Timur
▁stick
งค์
VM
saker
spr
▁Energi
▁batteri
▁Mela
▁drum
ière
iker
▁thinking
örd
▁зем
▁veter
▁SPA
cito
linta
loo
▁ideo
▁vender
Ap
▁đỏ
AVA
ization
▁sosten
stadt
▁hiper
▁Şe
▁friss
▁noma
esten
▁Ova
Der
▁fixa
FU
▁Oru
▁commande
enses
gili
▁Tio
▁score
▁1954
▁hút
慶
▁Sot
▁Ljubljana
▁bọn
ncang
▁quảng
▁Nick
idé
▁Republic
▁Jazz
berri
wasan
▁Herz
▁nazir
▁fantastic
▁Ond
▁quần
AWA
▁Cross
lott
KM
▁SAD
MK
faa
ppar
▁derecho
▁plane
▁Regula
ovalo
KEN
▁Turk
▁tera
▁destru
ival
▁piste
cru
φόρ
▁Ito
deb
cot
▁Boga
▁punta
ottam
▁rann
▁xil
▁Yar
邦
▁taha
▁quos
▁фронт
▁Hola
cite
alom
▁lumi
▁145
▁Liste
PRO
▁hôn
▁kuba
čev
▁icon
▁gillar
▁Số
▁skut
▁coses
▁gratuito
▁propos
tomi
▁clima
ức
▁Price
AIN
▁security
Ich
▁Danske
▁Jeho
▁Иванов
▁Fen
顯
yh
▁cores
voir
IEN
▁veril
lul
prost
ovana
▁Sila
db
▁Gram
▁filo
▁genial
aikan
▁eux
LB
▁mian
11)
▁creat
▁Kraft
▁MED
▁volk
▁Motiv
▁lento
烈
▁Gl
▁sheria
raum
▁voluntari
▁mill
▁Vul
llit
ded
豐
▁Anno
TOS
spur
▁absurd
▁GU
▁eam
alto
schi
▁Alb
▁yoga
doras
▁Andrea
bene
▁185
▁Vice
▁phim
▁Mikro
▁Mess
maid
fyll
▁teil
nelle
ន្ទ
▁quin
▁Rec
▁direction
dice
lava
klet
istic
dire
▁evangeli
ENG
▁Politi
▁Stil
カー
宿
genera
alter
▁voto
matta
alma
▁parle
▁Plo
randa
▁Moj
▁SEM
▁energy
lamak
nac
fini
▁Cloud
jy
Ze
RED
▁ways
liu
▁Element
ssé
宏
▁pretend
rila
note
▁lira
lised
▁strat
▁Sob
▁longe
zón
hro
▁coloca
▁nouvelles
▁Vit
▁Teo
oly
▁politique
barn
pped
1.2
▁compris
kna
/04/
ラン
2.5
sluit
▁sonder
▁exercit
▁Jā
ekli
▁bật
forme
itatem
▁protection
▁tanti
sdóttir
▁Nii
pression
▁banc
▁LAN
▁Viz
▁identifica
graphic
▁1600
portal
▁raf
enberg
tiku
▁aposta
éria
▁spec
meen
▁batek
▁Jane
▁QU
▁Vaa
▁UEFA
▁Maro
▁Ame
heder
éré
plant
jul
lb
жне
isho
▁constat
▁hô
▁Quel
▁recipe
▁beh
stem
▁Fá
英雄
▁Kann
▁trận
hei
▁Hướng
▁beneficia
▁skre
-28
lmi
▁eben
HL
nizi
▁consenti
▁Bord
cah
▁Roll
altres
thair
▁Reykjavík
kako
▁Finanz
utin
123
alda
▁mou
curs
▁Hassan
▁troba
vatel
ireann
▁sop
のみ
ipe
▁violent
CU
lgi
▁drug
少女
stum
▁multiple
▁Salut
▁langa
vaka
▁1.4
school
▁Guerra
umbu
Ur
chos
▁Security
▁koli
▁Sever
DV
sehen
uria
▁Dana
▁AND
lög
▁−
▁Quart
▁кла
ANS
sein
▁impe
▁street
RG
▁Norte
▁junior
▁consta
▁bə
væ
laridan
muse
▁İzmir
▁10-15
▁tany
rão
▁Sign
ёл
utilisation
stern
▁agra
dry
▁NRK
CHE
dā
▁Roger
▁kora
▁luk
▁dream
▁prost
▁31,
▁Beauty
▁Mens
▁Corte
▁trhu
nagar
oid
▁seem
▁math
NIK
energia
▁Iso
▁Fy
äll
▁Airport
▁Beta
▁amo
▁guy
ERO
çin
urat
kone
▁Title
AST
▁Մեր
▁KL
BD
▁Phòng
▁chó
▁bó
▁elde
▁inson
voll
▁privi
▁Russia
geld
regi
▁стих
Ū
▁truyện
เรียก
əl
praw
strup
uce
▁Phi
▁interesting
tros
陆
bik
▁Fox
▁taget
▁Mohd
duh
AIS
samt
▁perfil
▁Category
▁positif
hist
ABA
▁Bond
▁Deo
▁Hund
▁Pac
ctic
▁Premio
▁mne
male
▁Abbas
icus
ギ
▁screen
▁impression
▁parent
▁Deci
orient
▁strate
▁resa
▁comarca
▁remo
102
▁grei
▁Sự
▁rose
▁gere
▁Spr
▁Vegas
▁Jay
▁Ša
▁valori
Ce
bulo
fot
▁Arsenal
丰
accueil
▁Nev
▁jobbet
▁skep
ambo
kowa
▁Disk
nggu
tamise
▁khóa
zare
falls
▁bado
▁Luật
abord
▁energet
▁Licht
▁faca
▁Hart
▁Kino
kung
▁Tân
NB
▁uke
▁kinni
axe
▁Sexy
hets
▁semester
▁eco
▁Santos
▁raad
bac
pā
▁Mani
▁aflat
ips
▁kapa
ilma
plik
øg
staat
▁talab
unii
2020
Post
gde
▁7)
▁kova
▁trece
▁XVII
猛
▁XIII
▁contempla
iris
▁Menu
varu
▁chờ
ARD
rasi
陸
▁cash
vies
rnos
yib
▁creu
▁Vista
▁Down
▁trailer
▁Modell
▁plaza
▁impacto
▁entro
▁simplu
▁Rede
▁smile
▁postul
gati
▁natt
▁allan
▁salute
▁119
UC
▁incorpora
▁Flor
▁113
▁cree
▁Lud
▁hangi
▁Organ
ический
▁taller
▁rig
▁antiga
▁passado
uts
▁Iza
▁124
vao
888
univers
▁belgi
▁Luk
▁valeur
food
youtube
▁Monitor
kert
ritu
劉
▁rob
rda
laik
▁criminal
▁xong
▁Phil
▁destinat
jk
ulle
▁Sci
▁matu
▁Vic
▁raw
▁Esp
▁Landes
erto
paka
악
▁Jesu
inys
▁parque
▁idioma
meer
gha
érie
▁280
▁Dig
yf
utas
moto
▁Kurdî
kv
▁nông
▁dori
▁mole
kele
▁Cyn
▁Wilaya
▁Kod
tott
▁Dark
kud
iling
▁picture
şk
▁cải
wari
GR
▁brig
▁Grazie
modern
▁ANG
▁Rest
▁(22)
sou
bü
▁kona
keer
diya
▁piac
konda
▁heard
ggen
▁pí
▁hiss
▁1953
▁ultimi
▁certe
başı
▁added
▁brenda
▁Shin
▁gép
dhur
▁nef
▁Champions
auti
bier
▁jeu
▁magic
▁tato
teis
▁Monat
▁schlecht
wordpress
▁tina
ROS
▁flat
▁organisation
aki
岩
▁sinne
▁however
Europa
defini
▁acto
▁sạch
▁Jaya
▁boot
▁flag
▁Kemal
▁ziet
▁tink
▁Senior
▁Major
Bra
▁apps
basa
上で
▁spital
▁Situ
▁activ
▁126
▁Address
▁Kuna
iile
▁Eur
ág
▁kỷ
▁acc
▁gue
upe
▁brutal
▁Nina
▁BH
jaan
▁fama
▁muz
jir
chwa
▁ec
meyen
▁pull
▁tett
vrat
▁conveni
▁reality
angal
▁Kristo
▁Lista
anu
▁Oma
▁episode
▁Cơ
▁Kapa
tau
▁Nikola
▁elk
▁beag
vni
▁Buat
vl
▁augusti
▁arriba
kraj
zva
▁EST
▁behind
sab
▁impuls
▁Drive
▁ejus
interes
neen
▁hó
▁260
▁Hz
SER
▁kab
/05
▁ecc
otra
▁cò
▁Gj
覺
♥
▁bull
nier
▁cases
▁31-
▁tộc
▁sín
alai
Kan
▁Peri
orra
▁engel
▁kolla
issime
▁thảo
rain
10)
▁đừng
▁Tap
▁bashk
▁cường
▁Deel
sprechen
ryk
▁opus
tolewa
▁Tes
▁Essa
焦
▁buổi
izen
chow
▁request
▁results
▁Continua
Pra
czka
lela
▁TAN
fina
uoto
▁sari
▁Koo
▁vendita
EGA
▁nomen
ady
▁thiệu
▁Ish
tapi
▁100.000
amini
▁jong
ektor
lazi
STO
ará
1/
▁gela
sela
▁emer
▁ped
segur
▁samu
▁lép
▁اليمن
▁privilegi
▁Quod
/13
▁Uno
zati
kee
RN
▁Koma
▁Lot
揚
▁Step
▁Analytics
stica
▁Sø
▁Voices
8)
▁procedure
▁daun
▁concern
ferd
▁niệm
▁TM
▁saga
▁babe
▁Yol
tusta
▁strategie
▁khảo
▁nóng
▁tosi
pó
ología
▁Pom
▁Võ
▁Dus
faj
▁bajar
伝
▁Kỳ
SKO
▁melu
ungi
▁professionals
▁rade
▁armi
▁Logi
▁Lok
▁Mog
▁Still
rsat
▁fortuna
▁Phật
▁spal
CHI
порт
▁tarpe
▁medicina
▁instan
hiri
▁idem
Nor
▁uc
▁Şu
▁heli
堅
Mul
▁tận
▁krat
dhar
▁psa
arrak
tró
jou
▁blogs
gün
▁corps
▁clave
lahan
tist
▁Scott
▁ug
▁Aleksandr
tran
▁Ned
▁options
dec
oire
▁Kao
áp
▁hech
▁Lima
▁chữ
▁[3]
hale
▁Kalo
▁disposition
élé
▁mura
roh
stret
hman
alue
lend
7-
▁Ville
wind
▁outside
▁sata
্রি
▁implementa
▁fei
▁Sali
▁lumin
★
▁nave
▁Sera
▁Hoy
thon
▁plana
liegen
▁volle
▁nauk
zip
mano
roma
奈
▁Paket
xy
ürü
▁Pasa
Cor
▁aqua
▁woord
úin
neu
ahay
▁yosh
ères
▁municipi
force
lel
▁SER
▁Nacht
▁Cos
▁1952
▁matri
▁Bella
lser
atis
▁third
▁construction
ires
▁talo
▁pigment
kw
type
-27
▁green
▁Sá
FP
fach
▁mend
▁potenc
▁Tee
").
▁Lø
CHA
aç
▁bases
▁running
▁Paz
ibe
▁dama
kav
▁thar
▁Clo
▁Classic
▁summer
hah
▁muni
▁Quận
▁Sag
vende
loma
▁tóc
gner
▁трав
▁mili
kera
▁perde
▁energetic
▁muha
▁nhằm
▁Né
▁maybe
ตุ
▁fed
puri
▁dide
▁foran
blogg
▁Digi
▁Mö
▁Sina
▁Luci
▁10.00
▁Timo
stid
▁Color
▁linha
▁Apo
▁duce
▁Arc
▁Russ
▁kampa
▁tech
▁القر
tena
OY
▁berta
▁Fem
▁persen
▁Kl
▁liet
▁Govern
▁tarvi
izada
▁Hain
▁minum
▁propaganda
▁Роман
20%
▁moli
▁1,6
▁museo
榜
▁finger
ワ
Ľ
▁Cen
▁vaccin
▁thăm
wijk
▁ngon
▁Leh
AJA
▁tội
▁scrie
▁increase
▁nia
íd
▁144
ikku
▁woning
jau
▁perform
▁sof
▁solutions
jl
▁الحرب
赫
▁Nguyên
▁knowledge
▁Agro
▁Lap
▁consolida
-26
▁1800
Chi
▁IND
▁AKP
▁bize
▁verse
▁tuy
loni
▁pend
▁pama
▁mud
▁While
▁vond
▁الجو
zle
irano
▁analyse
kalo
kn
▁dite
illes
▁Wu
VEL
▁deputat
▁complica
ange
qqa
▁aile
ouse
▁guys
URU
hẳng
▁electoral
paik
▁lum
▁165
霸
▁homme
▁interval
▁approach
▁designer
▁official
▁magistr
▁auta
▁kiva
▁known
▁repas
▁elemento
▁Pari
▁brun
issement
hehe
▁thank
liet
▁Technik
▁Nye
▁DES
tso
▁André
▁Pulau
▁prest
▁doc
▁proste
group
▁seen
▁Prac
マン
▁secund
biya
klub
沈
preci
uomo
moz
▁perspectiva
▁Select
rial
▁Emma
arri
▁dys
ồn
▁insist
ungu
▁unsur
lti
▁Rome
Tak
hh
▁Rein
ωτ
▁Volkswagen
DN
EH
lone
▁reeds
▁formul
▁Пет
▁beta
haz
ivan
mpion
▁Syria
▁longer
horn
kela
▁Automat
AY
ị
BRE
Qa
format
▁Mili
vela
model
reza
▁daftar
oder
▁1.6
tatu
zicht
▁noci
ạch
psy
▁takes
▁EF
pica
koni
paus
▁kuli
andro
▁neb
范
lusi
lief
▁Legal
▁Eric
laisia
fam
▁devant
▁Tay
zeug
▁elegante
▁kafa
vero
▁Ahli
visor
▁(21)
▁Bratislava
▁Vier
▁Farm
▁Mba
▁shot
▁dinheiro
▁kb
▁roja
▁xúc
toe
▁ride
fei
▁Llan
▁Ecco
▁}
▁savi
szak
ái
alat
餅
▁spiritu
▁Glück
▁propter
▁individ
▁chỉnh
VU
▁gora
▁Dead
īd
▁Produ
▁decision
−
▁hie
▁Mà
laku
▁brei
▁prona
▁Duke
espera
FO
▁Xem
bral
OUT
MR
UNA
sare
少年
ised
▁kurum
▁crisis
ahu
plas
▁Demokrat
ωσ
藤
▁nhạc
▁lunas
▁Xiaomi
▁Алекс
AHA
onal
▁tron
▁Taman
▁FAQ
Õ
▁diagnostic
▁Ioan
▁heer
▁learning
luc
▁rie
▁Phương
anima
ILE
▁spirit
▁Neem
ismi
▁お
hung
▁swe
▁mentor
▁ngữ
▁elimin
ident
▁veteran
сип
▁fanno
meister
▁MAT
▁Máy
WS
puu
▁Notre
grav
ites
▁martes
▁jina
laza
▁kẻ
▁anonym
▁Saa
▁sax
eso
▁Dk
▁Keh
▁sympa
szcza
.8.
lnik
registra
iña
▁samlet
CZ
xx
รางวัล
▁bebe
What
▁Jackson
▁Rady
▁Aut
▁tỏ
▁Perdana
▁denomina
▁benzin
▁Gure
▁esku
ải
▁Sav
▁sf
zta
▁saad
wald
▁MK
hv
▁comprend
▁jude
▁UT
Eu
▁communi
-05-
▁improve
▁Tao
▁Sunday
messe
wezi
▁(22
▁Wit
▁songs
▁Court
automat
▁olo
flo
▁trade
tsin
1998
▁gravid
▁kinder
▁Kya
uld
personal
▁Hair
poko
▁Tarif
▁Teatro
steen
▁kele
吳
tach
▁vía
▁Fore
▁ceremoni
▁previ
ự
▁sean
▁Many
▁Öl
ages
vku
▁rost
ntia
-10-
▁Bari
▁2000.
▁affect
▁Riz
gid
stiti
▁vota
bawi
▁Și
▁Vend
▁comanda
▁mood
LOR
HK
shta
cci
sura
▁sperma
▁examen
溪
jimo
▁Justin
road
▁lande
▁farma
khi
▁Rahman
rike
▁procede
▁bilim
▁sise
gré
▁laske
χος
▁Genom
▁3%
▁gou
▁manis
▁khổ
▁rado
como
▁Doctor
gredi
studio
▁shir
qda
antaj
icum
▁Legend
珍
îm
▁testo
▁rust
▁Town
▁bronz
ICI
▁koll
asema
▁Pare
▁Pena
▁jab
▁alls
ailleurs
BT
▁Lite
▁Baha
▁Dich
▁NS
▁trek
llin
lange
▁cinci
plica
▁Booking
kalan
▁14:00
BN
atif
▁aday
▁lien
uosi
▁Gracias
schein
▁ingat
▁reven
▁Medio
stina
▁SIA
▁temperature
▁accepta
▁fila
▁Rich
πολ
cali
Sal
város
▁Num
LIG
▁marche
▁producent
▁cineva
mental
ída
stelu
▁trh
▁septembra
▁Pina
▁Wala
榮
andra
csa
izer
▁jir
anche
▁revol
eş
ledi
▁poema
xel
lium
▁khô
KIN
▁julio
▁escorte
▁Fahr
bond
PG
▁attack
▁solidari
szczy
▁lac
▁Chama
▁Vec
▁Florida
▁Need
lind
şar
▁types
▁nomi
▁Làm
œ
▁thấp
▁Fam
▁escritor
▁Hack
▁Rit
▁Dai
▁feest
vaj
▁Skype
chef
▁imati
▁Bayern
NER
starf
món
▁(2017)
rost
▁Kje
offer
isé
uzu
▁Mile
usia
▁Saf
▁scena
▁Bry
UG
ubah
▁cancel
taba
▁education
▁Div
▁tret
ceri
▁Acum
veti
leben
Mas
orde
▁marque
adar
llum
▁pho
尊
vör
▁nik
▁polic
▁techniques
uring
▁yote
▁Disc
扎
▁companies
▁industry
▁respublika
▁Sơn
▁marki
.........
▁Zaman
fí
▁garage
Ł
entra
▁lạc
▁burde
▁thua
riet
pite
bidea
▁kate
▁montes
▁chacun
aggi
▁mundu
BRA
ovan
▁Gab
yaya
▁moments
▁Xin
▁Eo
▁Mom
ipa
▁dicho
▁tree
nium
▁hấp
▁agad
▁magis
▁emit
einek
adress
▁Jordi
Up
naam
metr
▁Engels
▁motive
EY
▁Sher
▁valuta
mayan
▁pedagog
▁Lek
▁Prema
oci
▁corect
▁Cé
rummet
▁Köp
▁administrator
▁Ref
▁vostro
▁nep
dita
▁receive
erland
▁erit
▁FE
▁rester
▁pazar
ulin
nr
LAND
▁morali
ilte
▁further
▁Tirk
equip
ape
etas
/14
tused
spot
▁sharing
▁117
▁recupera
ntana
▁Episode
▁happen
▁lasa
▁oui
俊
▁demo
▁User
▁Lor
organiz
▁pig
rette
▁cannot
▁Sing
rova
▁Noi
▁Ross
igan
▁DN
бак
▁dixit
ços
zij
ọc
▁laboris
▁gaze
▁Hub
▁kính
rini
mentar
▁129
▁animali
yba
▁financial
pras
Ang
été
.7.
▁compta
▁gast
▁infer
xas
diel
▁Wow
padu
▁Gui
▁fünf
▁phổ
▁agree
rnar
▁jinsi
▁Fog
▁kaza
▁setting
vega
▁renk
▁radical
郭
▁mec
obre
▁tahan
ebe
▁Situation
▁sizi
ulia
▁Bana
▁slutt
▁Bert
tyk
▁provo
▁azi
āna
izam
▁dali
berry
akkan
greb
▁quais
▁Skr
▁jari
keli
▁Adobe
▁restaurante
▁XIV
▁imagen
▁tabel
▁muta
▁Sort
▁Brug
▁Kia
▁acho
▁sweet
ranga
▁ves
▁cuidado
▁Stelle
▁Smartphone
ELI
MIS
▁Toki
▁constant
▁provin
OJ
▁kronor
▁organization
▁materiali
▁gruppe
éra
vart
vut
▁Gw
dyr
▁(23
▁territorial
kori
▁phối
▁marta
qet
▁Montag
▁Cafe
Ol
岸
▁solen
▁dane
ayi
▁TS
▁40-
▁minne
▁munt
landet
▁informat
▁Cream
roep
▁PIN
ogi
▁oed
▁Sinu
▁bueno
seniz
符
maja
▁1.0
▁upo
:0
▁coach
▁thưởng
ecta
INO
▁Hele
kool
삼
▁Univers
▁deep
▁Torre
▁Universal
sæ
WAN
▁repara
▁pion
वाह
you
▁Alu
▁equipos
▁Evangel
rác
спект
rantz
▁nasce
xim
▁guerre
▁ETA
▁τεχν
vv
QUE
▁manca
▁piti
sset
▁Chef
▁Pow
▁Got
त्री
▁PRA
ORE
▁ulo
▁Kurt
▁Lyn
ombe
aliment
▁isola
áis
▁Mapa
sław
▁Hallo
ố
▁Vak
▁Prince
TX
▁surgery
▁histoire
▁coche
dust
XI
ế
trem
SET
Mag
▁Rá
lge
▁Bina
aban
106
▁tercer
▁Rund
▁Tyr
rl
▁grub
▁MY
ponent
▁2014-
heli
▁thơ
amaz
kuk
▁Suche
▁melan
▁xuyên
▁enig
▁films
▁hene
mura
▁Báo
▁stile
vaid
mint
svet
▁Merk
▁Henrik
▁Blo
▁infinit
▁viden
PH
ffel
jant
vima
fahrt
▁tribunal
glob
▁Chiar
▁intervi
▁snu
▁oka
sof
lyst
▁Burg
▁Neo
zada
garan
▁sold
anc
▁Piala
▁bomb
▁губ
▁Bare
▁giám
▁derechos
night
stot
dba
▁eel
lieb
▁Assist
▁costi
KAT
▁dispon
ulit
exist
mla
▁sesi
noc
cioni
TIN
▁wrote
▁khắc
▁arrive
▁medicine
▁village
Ag
▁gard
▁saying
laug
oris
▁fantasi
▁release
rali
▁porr
-2012
▁tamil
zimi
▁marc
▁vaca
▁Ê
▁voice
▁Qara
▁Szent
boo
lâ
IU
▁Polska
Den
▁volg
OTA
▁intelligent
kalla
cym
▁levering
▁loin
tren
▁Ea
tsen
▁miệng
▁đảo
▁saha
▁shar
▁android
▁count
▁Awards
inge
asha
▁fashion
nchi
spira
▁大
yol
▁kalla
乡
▁18.00
▁1929
▁viola
alde
tiske
plet
wię
▁opportunity
▁Labor
Reg
▁POS
▁Agent
ssu
▁bug
▁Yeh
RF
ivit
▁prince
▁Klar
elio
▁acqua
▁Lea
▁taun
▁terreno
ddu
roi
▁Deine
+2
suu
▁patria
▁Amor
ndre
▁Cand
asiya
▁BLOG
▁asti
md
▁costo
archi
Can
pou
▁270
shing
▁classic
▁GP
▁Ам
▁autour
schluss
yst
▁bill
▁mái
▁passi
vici
ilan
día
▁Viena
▁skra
▁numeri
onne
▁apostol
(2
▁bilir
marca
ESA
▁Chile
▁nais
▁đích
▁upon
▁wale
▁perdu
goda
▁nut
▁looked
▁kras
habi
vac
▁Ljub
▁windows
▁cole
▁bain
▁toko
rella
▁gani
▁chod
▁1-3
▁SUA
▁puc
inski
▁Record
funk
handling
▁中国
tures
▁saak
puta
圍
neem
▁bande
▁sarta
▁Serra
sár
missions
▁palu
new
▁among
tela
▁Xan
egli
mela
▁berba
▁Hea
霍
fug
Ò
▁ikan
right
geng
OW
album
warte
▁euroa
▁deutschen
▁Institu
▁suu
▁perang
▁consultar
ischer
ística
▁chắn
▁2002.
▁Hasta
orta
dito
▁vincula
▁brut
loc
▁3.2
▁Vz
▁alati
▁Aero
▁kaba
▁choose
▁conduct
佐
syen
tham
12)
▁VO
iones
gels
▁alias
▁Phong
▁puls
▁Gh
▁niên
laim
aḥ
▁Linh
▁muh
▁Bosni
▁Kristian
ATU
▁mơ
▁inclusive
▁المملكة
1999
▁Zie
▁pent
▁psycholog
▁puan
jero
▁stk
ribus
▁2001.
法人
▁amiga
▁illo
▁gross
▁dirigent
prie
eille
▁quant
wende
sland
▁Fé
oana
present
truk
▁rodo
▁pien
legar
▁NBA
mannen
tian
rados
ixe
▁angle
Para
▁plin
▁method
▁xur
▁nặng
▁Vida
▁phúc
▁domo
ixa
šek
▁Simp
fram
yā
▁Josep
amine
▁Self
▁roi
▁nazar
▁fille
EEN
sible
▁fud
▁Nadu
▁Newsletter
Home
hind
▁Aqui
▁Yoga
▁Pru
ensa
chie
▁Nahi
▁urin
▁Neben
ULA
▁Figur
▁kelle
▁16:00
▁Krishna
アン
▁Latina
帝
5-
▁fatta
▁Development
▁Organisation
▁IF
Mac
▁SUPER
dico
tona
▁Mitt
poz
maker
ités
▁1999.
▁EA
Tr
▁Isabel
accord
▁crisi
▁tool
▁propre
gale
▁specie
ruan
▁fris
▁medic
onda
virk
nton
ュ
two
▁technology
hə
▁tand
kait
▁tarta
50,000
▁Him
▁eign
▁Moon
insa
1997
▁1933
▁KOM
▁Emil
ovna
▁Ocean
▁gratuita
秦
▁dú
▁ondo
▁esperant
market
▁surprise
▁placa
vés
レン
dani
covi
-01
Mus
ESTA
▁vegeta
耶
′
▁confu
arsa
trau
▁prosto
ysa
loha
▁Niet
embe
lol
Ali
▁TAR
▁Vilnius
[9]
▁criteri
cast
dood
schop
lozi
tref
rupa
▁tue
iras
kush
▁WI
▁items
KP
▁KY
拔
TON
ikum
qon
▁franco
▁shule
▁turk
▁indien
▁País
chal
▁expedi
▁thúc
kani
▁gratia
kassa
▁Dinge
逐
▁sene
▁kiểu
пт
▁Shir
▁SY
tuh
ït
quina
usse
technic
▁Cod
▁BP
▁Bom
linge
▁Delhi
grado
make
宋
▁Trip
OLO
tette
fix
▁quatro
▁valu
5°
▁premium
▁Oi
▁Cami
¡
▁knew
twitter
Pan
tlen
▁nokta
▁Wort
zł
cid
▁Channel
▁discrimina
lenie
▁boss
▁eura
▁preu
▁VAL
plic
▁grow
▁linda
loka
▁session
Mal
▁Heim
▁cour
siu
▁મોદી
ITU
▁Nhân
▁plas
▁programmi
▁profes
terior
▁Muda
▁guard
ELL
▁flas
kua
▁abri
▁required
▁ampla
tionis
fes
▁Süd
▁pueblo
bras
▁vall
▁British
▁usually
▁dolu
▁Юр
ografía
▁isn
▁egg
";
giri
tume
▁naviga
puh
▁Dru
▁konstant
▁Espero
▁haur
▁Bernard
parta
▁suất
▁Stephen
Tìm
piste
▁Association
▁oven
▁Prime
▁barra
▁bj
doma
gatan
rusi
rry
lux
▁rama
▁hamil
▁Francis
▁configura
▁Nepal
occasion
晶
laina
ERT
hulu
OI
▁Epi
▁prevent
fice
▁elabora
▁szo
▁İki
schlag
▁tune
▁Tiu
NAS
▁cd
▁Syed
▁colore
für
nemer
emme
VC
▁Boh
▁esses
geha
pret
▁omnium
▁Sputnik
▁đẩy
zera
▁elan
CG
▁Too
craft
▁obi
▁compensa
▁trà
▁Gua
enz
▁nuit
jahr
▁exemplar
▁uka
avana
▁wild
Ệ
óm
mhar
▁Universität
▁2007,
▁marang
▁tolle
▁core
ilay
pier
dating
▁clinic
▁1,8
Alba
▁participants
vt
▁Clinton
▁Explorer
sisi
▁Dok
▁Hö
▁Status
bost
jami
unuz
▁alus
▁beth
▁tapet
▁Độ
▁WE
kū
▁Sco
iêu
pār
▁AA
TRE
▁depend
▁entreprises
▁3-5
▁null
▁Fashion
▁gagn
della
OH
▁Delta
GER
taget
bred
▁Pack
涼
▁kt
rici
▁cử
18)
rest
▁Chal
▁imper
▁invalid
harra
eño
▁Desi
▁Husk
▁aho
▁talking
▁cũ
▁ratione
thal
osas
fari
▁sabah
redo
▁1921
VIN
▁Rou
▁Mine
▁Pool
隱
viin
ndaki
maž
▁Nin
AJI
▁domini
TZ
▁Quảng
urdu
vard
▁lock
ḥ
▁Crea
▁krom
▁caur
▁Educa
▁exerci
lier
Ah
histoire
▁laman
▁Touch
elas
▁hour
biga
▁soud
▁Lag
diu
Report
▁Tí
bolag
munt
▁gigi
▁superar
sure
nami
øn
▁Tera
arm
BP
KR
▁Jón
▁episcop
▁elast
distan
vog
Oh
▁About
▁Hero
▁Levi
▁PVC
▁azon
▁Ske
qal
▁winkel
sier
ừ
єв
▁nesse
nosi
riez
▁neft
▁Gemeinde
▁Bw
▁Antalya
▁decreto
▁Çi
robe
TUR
▁Solar
GM
JEN
licht
▁Mw
zli
fran
▁Cao
▁Unu
▁banca
-29
▁tama
zorg
fäl
luse
jina
▁tark
▁nuôi
▁doce
opi
▁Silver
▁Andri
▁Tube
▁Muu
!).
▁Sản
왕
ường
▁absolv
▁siker
Porn
▁koru
imine
/2008
pc
▁romana
zava
сс
▁Lug
▁ministre
oan
▁slap
▁Balkan
/17
▁risque
▁collabora
▁Zara
Wir
▁liom
蔡
▁Laman
▁bund
▁privacy
▁Sozial
▁tutorial
▁maso
▁+1
▁ART
▁Yahoo
▁ferma
觉
lopen
▁Saar
▁yuk
昌
nés
EVA
▁koku
▁sava
▁Aller
araka
▁pec
▁KK
▁Passa
▁fren
▁skirt
▁hek
▁critica
aniu
OVA
DAR
▁merr
▁rib
lezi
vention
-2014
▁Psi
▁pintura
▁Việc
szel
▁breast
▁Andreas
▁property
ật
oitus
▁eten
tiny
▁Bug
▁Bj
▁Materi
▁bate
▁soul
zahl
▁1/4
akin
bhe
▁Persi
đen
pira
桑
/2007
▁metropol
born
▁manque
LINE
krij
▁repeti
gst
sager
▁Afg
▁modeller
ingas
▁frustra
fell
contra
▁(23)
▁gost
ıdır
▁bello
▁Haz
▁calle
▁Mundo
pugna
Institut
▁Pata
deild
▁cuisine
▁tumor
dden
▁bach
▁Quin
▁pura
▁uki
恋
▁Свят
cure
▁kaha
▁scientific
▁buz
qay
fant
fie
▁guia
▁Noen
▁equipa
▁coopera
▁kans
cenia
▁Alfa
▁AU
▁spy
▁bureau
▁Kevin
日本人
▁verba
▁Rä
▁subsidi
▁દા
▁hamar
▁Ava
▁Beg
▁LIVE
▁undang
▁Smo
▁response
ráz
bini
jalo
▁chroni
▁blue
reak
▁fus
▁pedra
▁vola
cú
▁Tut
photo
▁Jas
polo
▁foot
enburg
daw
▁absorb
1,5
▁temi
▁medium
▁1-0
▁ngôi
evole
leven
ås
▁Tallinn
▁phê
▁Jakob
nina
IKE
▁eventual
hita
▁mâ
▁Reporter
sist
kawa
▁Maya
rwy
▁fuerte
▁leader
▁burger
ār
▁Scho
legging
rime
chè
▁pys
mora
▁Lun
ünde
TUS
▁BY
▁guess
▁màn
risk
▁dayan
▁mezzo
▁EV
▁Kho
social
negara
▁ironi
▁Bayan
ZU
▁Ethiopia
mbur
azh
仲
ndosi
▁verbo
▁escala
▁Magazine
▁nese
idio
PB
▁Style
▁PAN
▁eleva
lation
▁Hiện
▁dec
kst
▁kW
product
ovski
▁Bhi
lani
▁weight
irala
▁Links
▁Bü
blon
▁Basa
▁ESP
▁256
▁dorp
▁laps
ILL
▁alcohol
▁funda
▁Kampung
Android
▁cul
linda
▁Reis
▁Action
▁225
jua
▁pate
fti
▁baya
▁小
public
cale
▁DB
Pod
▁Porta
wych
lauf
▁matern
▁Tú
▁habita
▁Josef
研究所
▁propone
coj
▁1934
ANTA
▁127
▁Kopf
▁omni
▁Uy
▁cán
庄
क़
hop
▁consist
cılar
▁hahaha
▁resolver
▁Integr
▁Vand
▁nối
koma
▁(24)
IKI
▁
▁Buenos
750
▁Tudo
▁generation
▁đen
mpang
zaro
pens
gona
mee
handa
▁CHP
▁romani
▁István
▁unele
ppet
▁planning
rakan
hanga
▁Curso
▁parfum
loq
▁1:1
▁hacen
▁139
▁tipp
▁prepar
ometri
menin
▁stampa
▁parang
cê
▁luka
▁Patri
pung
▁piccolo
fiz
itatis
annu
▁SAL
ős
rawat
Part
ISO
dach
uwen
▁Ade
Wo
rell
ienne
dona
▁pup
▁quattro
▁feedback
▁(2018)
▁Nisan
▁Wid
▁Ina
▁expo
▁Zwei
baig
▁Jerusalem
analyse
dant
nota
▁reach
▁saba
sali
▁Funk
▁Women
tyka
▁Spin
obo
▁wife
▁possi
▁kakor
როს
orem
profil
▁khởi
▁panorama
▁1924
▁Week
ファン
▁Baile
▁dient
▁pav
▁palet
case
hamba
kerfi
▁moze
▁profund
▁loft
bhu
primi
▁neob
乙
▁Homo
▁Abraham
▁inga
▁teki
askan
▁Eigen
cré
mét
▁nenu
▁reca
strand
presa
cris
LF
▁areas
viden
▁hid
Ai
▁Zor
jale
alit
▁justifica
ilija
rodo
▁disp
▁player
skov
arium
▁Luka
▁Pig
▁Brad
Del
▁maza
▁limba
鹿
▁definitely
▁García
SON
tista
YN
śnie
▁fillo
▁plag
▁manus
satte
▁exige
▁temporal
▁riski
rbe
▁2-1
▁Morgen
skil
ờ
▁habet
▁Sebastian
▁huge
▁Vac
▁cald
▁dug
▁loma
▁Ira
▁Sach
rifi
BOR
cies
▁specifi
▁Gear
▁Như
▁legitim
▁thủy
▁Honor
|
▁Điện
▁illustra
▁profunda
▁Garten
otni
pomen
▁eventi
tuen
cī
izza
лайн
OTO
șe
▁Boot
kasi
▁plazo
ingo
▁Nature
▁Pierre
▁dalis
▁halt
▁Entertainment
▁Muha
▁nevi
▁Kerk
▁Chicago
▁15:00
▁prag
▁modele
▁Support
▁Quer
▁ALL
mming
▁Profil
mig
▁huy
▁Thiru
Sen
▁chut
▁121
▁wonderful
▁intui
▁dây
byr
ffin
comp
▁Medien
▁luyện
▁Singapore
▁Museu
▁mier
tsiya
▁stanje
central
qib
▁Manu
▁plata
▁Linda
▁bansa
tesi
baru
▁rúm
xhi
tolo
rise
bæ
õi
▁wasn
fyl
▁autonom
acte
ugh
▁2000-
▁zemi
▁Vũ
▁wall
▁cult
skott
▁miền
▁Spill
év
ection
koch
APA
▁groz
▁viloyati
gida
runa
żu
bido
STRA
sler
▁Rent
іє
hey
▁Netflix
▁purchase
dels
▁suda
▁zara
▁Hugo
▁museum
▁hyper
▁Aff
▁Kenn
▁agat
Min
▁1,4
bawa
▁sorry
▁Lah
▁grab
super
posito
▁written
▁mã
tatis
▁Bridge
licher
▁Presidenti
▁billet
▁baro
▁Tale
▁sender
▁Hoc
▁(26
sete
▁procedura
▁bây
▁Samuel
▁reali
▁privado
athu
ching
pano
nima
sít
▁SF
▁corte
▁comporta
▁Gore
▁cut
nula
▁agam
▁Oui
▁Demir
▁gond
▁kelia
▁Wang
monia
▁wasu
upi
lép
▁dirige
▁levere
▁CSS
tram
▁Пара
▁Nim
▁Inga
▁tari
▁ceza
gou
ßen
▁Laut
▁Isso
▁Mí
▁Tule
丸
▁brief
rats
▁Jud
▁District
dern
pov
yse
▁deporte
MAR
▁Posta
FM
tova
NAN
▁skills
ELA
▁Lam
oksi
▁1400
▁inclus
▁cher
▁Energia
▁mez
▁Ponte
▁chip
▁Čas
▁digo
▁traje
▁oog
▁Pembe
▁pens
masta
shir
unde
arch
Centr
▁town
lose
ザ
oran
▁customers
herr
▁betala
rska
scription
▁aine
▁Ig
▁vrouw
▁Tell
▁according
kuri
karta
▁kém
▁Kana
▁新
▁castell
baik
▁Johnson
▁Damer
▁Tata
▁Quelle
▁132
▁1990-
moon
▁[4]
INT
pír
▁nosi
ordre
▁pengu
chov
druck
▁Koi
cè
▁Potter
lanish
kui
▁tuk
▁naging
▁BAB
▁Sedan
▁tulad
▁Force
▁nhờ
▁Mond
▁rup
▁lecture
▁gesto
trip
orul
▁Roberto
▁mucha
open
▁Tier
GAN
▁95%
vreme
lona
▁origin
koha
▁seven
▁dava
▁campagne
buh
RÁ
▁Tony
6)
▁INTER
hắc
jere
▁sota
ENE
▁blood
▁installation
tinu
dding
▁bruges
17)
▁Family
▁Thực
żni
▁Wald
eline
▁priva
▁paha
▁Baj
IMO
▁Viet
▁strom
▁1951
▁Little
dop
▁(25)
ebat
▁esker
▁Cooper
▁Kati
lines
▁tabu
▁Karin
vd
▁Quem
▁Usta
BAR
▁2.3
▁haku
▁tragedi
▁Diego
▁yuz
▁perfecta
toire
▁Pink
hvi
kalu
kban
cach
STI
beta
▁Rib
dho
crit
google
▁principali
羽
Non
▁Büyük
▁Đối
▁trem
lugu
uyu
adon
stock
▁apply
▁nouveaux
inom
dorf
rur
▁contenu
▁robo
copi
▁NOR
▁propi
tlu
▁EC
▁gadis
▁protect
siin
▁ukr
▁Jugend
▁Mohammad
▁esport
▁gastronomi
▁Sanat
▁Lille
▁outfit
▁Kurz
mman
hya
figur
giver
Port
norm
▁commun
▁rastlin
▁tute
yay
hee
헌
▁purpose
Air
▁acceder
▁spro
▁lab
▁nee
bby
▁4.5
扶
1996
▁Exp
▁TAK
▁mercat
▁tribu
entzia
city
▁commercial
▁Nada
DEM
eling
▁king
▁moyen
▁Ota
▁Ym
▁kalk
eck
▁quận
▁nivell
szcze
ETE
▁dossier
bike
▁ramme
UH
▁Schutz
tsy
▁Mach
▁Jaan
tva
▁UR
лана
▁otak
▁Alap
▁circo
▁(28
▁yaka
hyr
▁cata
▁Jab
▁Elena
nggung
gud
cionado
▁difference
▁feature
VV
▁darbi
sade
▁Veel
▁rue
▁analog
njang
▁slova
▁sofa
γου
▁dik
sula
▁Girona
izira
cato
▁qat
isc
▁patients
▁effective
munk
▁sleep
import
▁Esti
ẽ
岡
▁REG
ules
▁nomo
▁Akt
stift
RJ
▁Bible
▁notice
▁grader
imenti
▁Mona
▁zir
mart
▁Angela
daha
▁Ukraina
▁unico
Zi
TET
ほ
▁trải
ですか
▁patro
sinn
tikan
▁ovan
tals
▁Dupa
uum
yung
atos
▁donat
clam
lager
▁DM
sere
▁impro
▁Khmer
▁Paa
京都
mát
source
PAR
▁viv
ften
ără
▁proven
450
estro
▁Gujarati
▁Type
▁dispose
▁ident
ỷ
ZER
asto
▁Haa
▁1925
-60
▁kriv
▁((
▁Kost
ances
▁coordina
▁zak
▁lift
▁Valentin
▁documents
▁Tran
▁medici
▁chemin
auteur
▁Pá
Zo
▁Simple
▁acquis
▁Player
▁DIY
étude
▁Cau
伟
imba
▁Julia
▁xal
▁prata
▁boka
sako
DIN
stabil
tane
▁robust
porn
cko
ncing
▁profile
Ě
▁nhiêu
▁Academia
ziya
laz
Yo
emel
odob
▁zela
nava
▁american
▁spelen
ineen
▁Oil
amb
vande
▁Lid
▁Andrew
▁equi
▁particip
ieni
rren
piga
Don
▁Qe
▁lives
cious
ecto
▁coincid
rimo
▁Bale
▁Dhi
▁slit
対
nette
olin
▁1932
▁ghe
Hel
rane
鸡
ndas
▁Weise
▁Md
▁Tü
▁suit
▁Enter
▁Look
▁analys
teki
▁KAN
taş
▁teise
▁PK
倫
▁Orta
▁Renault
▁sạn
▁Heart
kuha
ggan
hhh
pedi
WAR
▁path
ives
ouvre
dám
▁Dragon
geh
▁descend
▁interested
pap
▁Dic
▁goes
澤
▁aider
ologic
licit
▁terras
ETI
▁telur
ONI
koti
ṇ
▁Ghi
tanya
▁rhe
▁Format
▁Especial
Hy
16)
visión
YK
▁lava
▁Award
▁cầm
▁Technologie
dge
ACE
rande
▁Suur
Das
▁Lü
byte
▁accord
▁Rasa
▁երգ
siti
ambia
▁Gast
ADE
▁sahib
Ein
kiwa
geno
▁Dubai
▁chlad
▁Haj
tifica
samma
▁netop
gə
洲
rante
220
▁classes
▁admira
shon
pah
▁serio
ope
▁mash
ayey
▁dita
▁Moh
VAL
990
▁blij
▁vento
mode
▁Carol
▁sancti
bam
▁AJ
daba
▁Low
歸
ṭ
iline
▁Patrick
▁realist
べ
łuż
bole
hü
浪
▁Mensch
▁Girls
▁1923
fut
▁DIE
▁reer
▁Seo
孤
meny
▁sắp
▁themselves
zab
▁exercitation
▁Jah
Sc
▁Savi
▁Selatan
dome
revolu
fiq
RV
▁alb
ramai
soft
▁repro
▁bibli
▁televisi
▁Inilah
bn
▁pier
reb
neri
draug
state
▁technique
妙
▁Salvador
▁illi
bani
▁Mø
▁rasp
mede
▁insu
esz
▁ipso
yaan
▁général
▁4.1
vro
▁kere
▁circuit
▁Afghanistan
▁Account
▁Preto
▁Café
▁Họ
▁sept
ropa
▁Admin
Ik
reik
atko
▁Sya
NIA
▁restitu
▁escu
▁Dobro
cionar
zw
▁initial
arg
lod
iky
prave
oasa
▁Volvo
▁uniform
spite
▁murid
▁sacra
▁Egypt
SN
▁hente
▁gus
▁1935
▁gitt
▁tane
▁Hali
▁smil
ざ
▁dư
már
▁ground
▁134
▁İm
▁feed
▁SW
irao
▁qualifica
▁lup
ROM
MOS
nty
▁hohe
▁Spel
▁Wein
vata
avit
▁diplomat
▁ts
Im
▁pah
dido
▁CN
▁Gren
▁RES
▁moji
▁frais
centrum
dict
▁dispone
▁API
▁accu
FOR
hela
▁tuto
▁Magic
▁Chr
milla
▁trist
▁Temperatur
▁Brexit
▁aula
▁Deg
▁VAR
▁1.1.
MUS
eseen
dessous
download
▁ambil
▁Ukrain
▁Tang
▁tia
▁colli
rese
▁girtin
▁Bland
VAR
▁1928
ạc
▁babi
▁arbitra
フィ
▁Author
ordin
scribi
krov
inhos
duga
mira
▁profe
▁maraton
metri
sabi
▁Taka
fio
▁toma
HAR
▁Stato
XO
▁appartement
▁tablo
▁COMP
▁Bhu
▁schema
▁thẳng
▁haz
▁angel
jia
▁Voit
▁lõ
MV
bju
▁define
▁Professional
zod
▁Mund
▁Praw
tiq
oxid
▁starost
儀
▁palm
oooo
iç
▁actions
lida
▁Iru
▁MER
▁Nesta
▁dividi
zale
▁continuo
ành
▁Alg
mix
serv
legu
laf
▁POD
▁origina
▁Phú
▁brev
Dar
▁Lik
IGA
▁gelijk
lase
▁principe
One
▁lol
▁kristen
▁Kaza
lová
ises
▁lindo
▁Moo
issent
▁Châu
▁bầu
▁stockholm
▁abba
▁habit
▁sfer
▁jus
▁Rh
▁tempos
laman
ngiz
▁Qor
▁igitur
▁leith
▁Frans
▁bota
15)
РГ
ider
▁Aires
▁gets
▁Rab
ebla
▁gallu
tusi
porno
uris
▁Trá
▁gü
▁Feder
IKO
alen
huhu
fos
tric
▁Schule
▁abad
▁dank
kowi
pac
▁git
▁subir
▁neutral
▁legislativ
anos
▁merak
dib
▁Dú
cala
▁Prak
▁Bruk
simi
▁skru
▁quán
▁Paper
imid
Nov
▁maku
▁regis
illon
tler
▁euskara
map
▁haram
IMI
sort
牧
TRI
▁Wien
▁tider
▁1/3
▁zid
eman
▁golpe
colli
bje
ゲ
▁HDP
IOS
▁Pré
▁Æ
huma
szter
dei
▁necessita
▁kio
hnu
seda
▁practica
▁Ong
bum
SY
sain
cán
▁Connect
▁intel
▁Mó
▁CHI
▁commission
▁Odisha
▁Marta
Cha
▁Oz
▁voiture
ply
izu
▁stam
▁distance
vente
unti
▁Governo
▁escr
▁Dina
▁TT
tention
▁vigor
DEL
▁phận
▁handicap
▁akce
▁cien
▁tiam
aars
size
▁pussy
▁BNG
▁Usu
▁related
▁Board
▁MAG
▁Recep
▁DIS
aff
▁Industrie
▁verifica
lende
▁Đó
▁studier
▁75%
peng
▁Invest
etter
▁eba
tree
▁beauty
āri
yir
▁Holm
▁Lem
▁geno
▁Gum
▁transit
Trans
solu
▁huyện
51)
240
fritt
▁Борис
meniz
ärt
PV
▁ray
▁ryb
鼓
芳
▁legenda
▁Domino
▁tape
▁Tant
▁Turismo
▁Nazar
▁Illa
▁Boston
▁Cik
▁deutsche
▁cento
ibig
▁Ori
▁Deep
Tre
yó
gando
舒
legri
▁apri
grin
▁contest
▁Vasta
▁Ngo
velli
element
▁Ferrari
▁Juri
▁Such
▁Chin
▁logic
iyah
power
▁Úr
▁voet
▁vef
▁Mint
inama
▁Latest
bian
sette
▁Pale
▁character
plu
▁basic
▁bombe
▁Holiday
▁wako
▁hadal
▁ràng
▁Amir
▁koe
▁pappa
▁Hof
amar
virta
▁fæ
meid
▁Ferenc
xona
regul
▁Joo
▁baar
▁jemi
▁Academy
▁Flori
СУ
midi
▁avto
▁nina
▁Gdy
stuk
hni
▁normativ
30)
RAL
iski
▁provided
luft
chant
Ô
yap
▁05.
▁sri
▁tyr
▁skat
§
▁colle
ogen
▁1912
▁Tank
▁Mitte
淨
3,000
▁Modul
▁Hii
gine
▁Andra
Tar
load
▁Sử
ytu
▁emberi
▁vild
▁claim
▁casual
È
▁beti
letter
dier
▁Pavel
▁Etxe
peti
▁fura
▁Bö
▁Nyheter
▁Cost
▁2018)
ywa
stis
cover
▁향
Mad
▁trouble
tanto
▁Rend
/09
treb
▁Cea
▁masjid
▁Că
▁huko
ERS
rore
▁vượt
▁amis
bā
▁lugu
▁Oder
▁economi
▁klu
▁Marea
wnie
▁trust
frem
▁anta
aniya
fuz
zado
莊
sions
ýt
▁Kiss
▁Ark
henti
ikos
▁legi
szek
13)
5.000
▁index
▁reputa
yri
▁optimist
▁ensure
▁Sev
▁angol
▁gadus
oten
ssin
▁nạn
▁ensemble
▁Poly
▁bah
▁tré
▁prohibi
▁Kron
▁fresh
▁tamo
fag
▁Johor
Mari
▁hond
toma
▁Speed
▁selles
▁Buhari
итель
haru
▁―
uvi
trek
zali
▁socials
▁salir
angl
▁wewe
▁regalo
dente
▁database
angkat
ạt
▁19.00
skolan
etur
▁Span
▁Revi
▁1922
▁estrada
lee
dö
▁Sic
▁Đảng
enes
phu
Bas
dwa
▁Herbal
ssent
reto
▁seama
clo
▁Bandung
izia
ếu
▁eis
IER
▁Abd
▁religio
▁Yet
▁ordin
0,0
▁Antara
UDI
Ny
▁conte
gele
▁Cool
▁dormi
▁Department
▁Marko
▁necessary
▁Taylor
▁fale
▁ensin
ırlar
▁abo
KON
OX
DAL
▁Arch
adigan
asu
yos
▁dicas
heure
lamp
ates
▁Zij
103
▁bout
homme
▁Oso
▁Emer
▁sist
Bal
▁hobby
▁regime
125
▁Naz
mī
kling
▁archi
▁Stru
▁bait
▁tension
mér
▁FL
onge
▁Pli
apparat
魯
▁illum
▁Gustav
Amerika
▁fuga
isset
▁4.2
[10]
▁operat
▁Dự
Esp
dhan
▁Fitness
arda
yes
dula
▁João
roon
▁tantum
▁Mă
▁Sao
usto
zeti
hull
▁abban
▁mondial
▁allow
▁İs
Ser
▁quarto
▁quick
▁kalli
olah
pian
Cre
啟
KET
奉
▁Música
▁statement
▁NB
▁ayah
▁trap
▁Kristin
ITY
edad
▁darab
▁stats
listen
▁piece
gäng
âng
JK
▁Vra
arul
▁ρ
▁dak
▁Commission
bino
▁Sten
▁herbal
dida
grani
▁149
nede
▁sann
▁480
▁Pé
kab
▁Organis
▁parts
process
▁sket
▁asso
ception
▁Rafael
▁meteor
roid
SKE
▁chirurg
wara
▁gale
▁Podle
▁Sent
epe
▁Itt
▁gravi
▁promis
kron
done
▁Donc
sual
ENTE
raq
UAN
/03/
ssant
ético
kasa
▁Euch
▁loca
▁Masjid
▁mayo
şin
STER
▁Geen
▁INS
▁Gesetz
fara
lof
▁Sint
prox
▁Ł
▁1916
tear
▁Baie
▁CAN
thing
▁viêm
▁corpora
▁weke
▁Giấy
▁bức
▁excel
alus
▁Udal
▁filosofi
chana
UNT
▁Trade
▁directe
▁STA
mono
▁Hati
▁cánh
▁comunidad
▁Wei
▁torn
žal
▁Sza
▁entire
tiones
▁Haji
▁require
▁hoo
▁explora
rè
▁Wednesday
hok
▁kén
SIA
curr
▁marina
актив
▁Pois
arca
▁linje
▁Vân
▁Ča
▁keel
hì
▁trest
▁DK
▁Mula
uis
irali
Link
anger
▁organizator
荣
▁Terengganu
▁resol
lait
faktor
▁websites
ground
▁vagina
▁ones
▁Јо
▁Made
▁Lad
▁alu
▁miq
beni
▁EURO
▁POL
imp
▁133
▁sloven
abend
▁tuntu
▁avance
ists
▁2021
▁Diana
▁sẵn
▁UD
▁cinn
ũ
ESS
▁Lâm
isant
▁advers
myn
rası
▁pest
gestel
诗
▁instead
▁wazi
▁krea
▁provi
▁stb
▁Cava
angat
zlar
▁kalma
naf
▁Ganz
▁trom
anii
▁vivre
▁prep
団
▁chocolate
hà
▁Other
ặc
brali
guide
▁corazón
angi
reta
▁construct
fine
▁Wetter
▁completely
▁sensi
▁satisfac
sugu
▁Osta
ńskiego
▁misura
▁136
▁considerat
▁offers
▁Dre
slim
wili
▁hadden
▁Arts
▁intro
ateur
▁ND
▁abang
bahn
ryd
akti
▁Julie
▁vidéo
▁Wen
▁occasione
▁wid
allo
▁เม
sani
▁jobber
▁rua
▁Isla
▁hydro
▁hake
▁piso
oner
▁conquista
sori
▁cheap
▁repos
▁179
PAN
▁15-20
▁Slov
▁Topp
▁Palma
▁avond
leisti
look
▁2017-2018
▁djela
▁LT
▁Sonntag
eña
▁instituti
▁License
▁pub
pete
▁Gazeta
▁appena
▁finn
zed
▁cadeau
▁nid
▁Leave
Ư
▁rice
orat
KV
▁dedicat
▁đột
▁ngăn
▁toilet
▁abort
▁nation
angel
Mae
mpan
▁Geb
▁Cuma
▁Series
▁desert
▁premis
▁Earth
▁Bh
▁oude
▁Tages
▁merg
夕
▁Logg
▁1915
▁Caesar
▁dần
▁Istanbul
▁mũi
▁CIA
▁cestu
▁sensu
▁Save
われ
▁cami
関
▁primar
▁Moz
ctis
▁muerte
▁truy
jik
cuti
nome
▁1910
boru
JS
slapp
▁Arri
▁MAI
adis
▁Dela
▁holiday
▁halen
▁ổn
minis
▁Sop
hede
▁hạnh
office
dron
tinka
pino
▁precedente
▁8)
bc
999
▁extend
▁137
▁alimenta
▁Four
▁Ice
veden
▁capa
▁Vera
▁Assim
▁morate
deva
▁illud
▁DIA
hain
▁Auk
hindi
vát
chilar
▁Beni
upo
▁electronic
PAT
niya
▁chứa
▁LES
rth
ội
fano
▁jung
▁panga
▁decora
Sy
▁moderni
dij
▁Muka
▁Cai
▁inti
▁polici
upan
ajam
▁Skol
▁capit
▁Conven
madi
▁larga
▁Pov
▁138
ificat
▁Mohamed
▁west
lingu
14)
▁Navig
▁Pablo
▁Kommun
▁Testament
▁streaming
shadi
AVE
diq
stia
Univers
YM
▁bede
0%
▁(27
fh
▁APA
Vis
▁faça
▁Rossiya
監
▁lean
▁signo
▁horren
einander
vissa
▁Prat
vost
yog
rev
institut
▁Eye
retur
XA
space
anum
懷
▁autant
▁Dessa
flug
PEN
RIN
▁split
▁131
▁Duo
▁Napoli
▁netto
fatta
▁udal
▁Aste
▁hoàng
idin
άρα
▁responder
▁mell
ljan
▁februarie
▁habitu
▁havi
▁introduce
▁Rik
imiento
rät
▁resources
jui
legum
▁felles
▁encourage
▁Juventus
▁Hein
▁Scan
kār
▁fame
▁(2015)
▁monter
▁testu
▁香港
▁BAN
▁Hún
▁annab
▁formule
nacht
▁mæ
▁Comune
untu
▁cyd
▁changes
ministra
▁Suk
raken
▁Tanah
SES
▁gira
▁pastor
xun
▁styre
▁rí
Pas
жина
▁HAR
▁Objekt
မင်း
anten
▁apsi
turas
inhas
▁webb
▁enlace
bold
▁reme
▁diesel
▁sanc
finn
MF
▁Alat
gier
郎
▁Atau
▁antar
▁doby
shen
SAT
chet
▁Hayat
▁zai
▁Эд
serva
UNI
▁beda
tempo
▁successful
▁NT
▁colla
▁Norway
▁desea
▁Nec
satu
▁History
▁Rub
▁HERE
▁Kamar
▁Deniz
▁Evo
mén
▁Robin
▁bade
▁Zar
▁Năm
▁spu
▁13:00
▁patriot
alli
▁Asocia
ithre
▁Kolej
hyl
▁Krea
arde
gyel
▁hài
▁cấu
▁kosa
blok
▁rám
gū
ESTI
▁dyn
▁presi
user
▁defend
▁Western
▁Lys
enean
▁plau
ùi
▁2006,
▁Suka
▁antigo
▁dome
wissel
NV
▁lắng
▁1300
▁Barang
▁atelier
mput
▁alda
nipun
zb
Nie
riye
žka
bres
IYA
iems
gica
▁environment
333
▁1905
kies
▁geral
▁capi
▁Since
▁fug
cumque
histori
▁gaf
▁rating
drar
ulmuş
▁addition
ettek
▁Gian
▁veu
κυ
▁Malmö
▁Community
seen
▁Alice
▁Pho
▁chora
▁darb
weer
▁Nang
▁plati
▁ecce
▁Crist
EGO
▁Marx
darbi
▁features
▁BT
hanan
▁diabet
corrupt
joh
▁MV
▁exactly
Han
▁Otro
▁belo
▁dic
labas
halte
▁lettere
prove
ettel
▁schade
▁batal
▁Tok
▁iman
▁projets
esprit
▁bawa
▁restri
▁2.4
▁vodu
▁task
missa
lca
▁riu
ục
haja
▁arzu
▁przew
▁Boss
▁acces
▁manda
▁animo
찬
olio
vem
▁lips
▁1-1
instal
▁vile
gesi
Sun
アル
QQ
▁Kuwa
▁buộc
▁Kaz
▁Jonas
▁Brian
mud
▁minori
▁Chia
zā
enco
▁observ
rdim
▁Interes
▁Robot
▁Rating
▁feste
vc
tâ
▁rif
▁fart
蜜
▁hãng
▁rode
aging
▁emigr
30%
▁Bör
▁vegan
▁repar
▁Somalia
▁mami
ỗ
▁1931
▁Bibli
ppy
▁filial
ALL
▁APP
▁Suriya
Tag
▁bryd
▁toca
hund
gunt
TED
▁sữa
▁regio
ixen
tsch
▁delu
affaire
offre
ksy
▁eto
▁Lago
▁Bunga
teilung
▁Segui
▁Verde
▁DAP
▁पुर
berto
ombre
▁rebus
▁koo
▁Jai
pix
▁environ
/02/
guin
▁tó
介
ātā
▁kapel
▁143
▁nghiêm
▁himself
voje
▁Paulus
TIK
▁Haha
standard
▁Lond
ssum
sining
▁stab
▁Nha
favor
dod
dika
▁irre
யன்
▁mota
▁reparti
chin
▁tekint
▁shtet
▁spie
▁Gaur
▁152
tarea
▁Ambiente
laq
▁Cinta
▁hins
▁SEK
▁aliquid
▁Steven
udah
drin
esia
▁capo
▁Rua
2018)
cles
dags
▁Musi
URE
▁Elektronik
▁frase
▁shtr
baş
▁Austria
▁三
tangan
aaral
▁artificial
▁quote
▁hoof
▁dă
▁pneu
wall
中華
▁torno
vred
▁certi
▁banco
▁norme
▁challenge
FER
▁Castel
-00
IME
▁Universiti
柱
▁đốc
.09.2018
phil
舍
▁zapa
▁lunga
▁giai
Fr
tadi
▁Về
▁presto
▁sovra
tesse
▁Marin
▁climat
ark
▁Banco
HF
▁determinat
▁Sami
▁Grie
▁Leit
▁nume
▁Kazi
▁dica
▁spent
▁Pik
▁Vision
arme
104
190
ISTA
▁alien
vosti
lick
uß
tante
dī
EDI
▁flori
lop
▁Doda
▁sobe
▁Fernández
▁thắng
▁Energy
▁Asian
▁indo
▁Dance
▁konf
▁Mér
▁planer
▁bánh
▁Beginn
▁existi
corr
▁aya
▁Society
▁favore
NIC
iiv
ciens
eggia
hwe
▁fundament
nick
cse
haven
▁llama
DAY
immat
▁Boris
▁Deutschen
▁kill
▁fish
kres
clusi
▁nivo
shed
OMA
rx
kasse
ovia
ggy
▁certaines
▁Lui
▁mister
▁slep
άντ
▁Ecclesia
xí
▁Kou
▁populi
bø
▁FIN
▁finish
▁glan
▁17.00
viel
▁Proto
▁Susan
▁leden
▁Toda
raman
▁seng
▁gais
▁buồn
▁tarda
jona
▁Ofer
▁(26)
ZN
blas
▁châu
▁merito
▁Pav
▁Geh
haka
▁Publi
▁recommend
RAK
vesi
▁turp
ιος
貝
▁goda
Au
▁rower
HET
lique
▁tulu
▁Isi
▁father
owni
▁prat
▁rozum
▁Dame
áng
▁Valg
▁fede
▁♦
▁kleiner
minut
▁Match
vane
▁rolle
class
▁moest
▁Herri
▁siêu
/24
諸
▁Ego
▁02.
epi
▁Fine
▁smut
▁krim
cf
▁Dick
▁Sari
ulus
▁HTC
▁permane
▁Militar
▁fabrik
izmi
▁synd
▁reh
tzak
▁bouw
qam
▁Fira
asin
▁kain
▁kvin
▁ellas
tempe
aty
▁Johann
リン
▁mãi
école
▁Outlook
mals
▁Dagens
supp
fisk
▁UNI
▁mortal
▁hâ
uvat
▁Tala
agne
▁Esi
αίο
organisa
inya
ENI
▁Bosch
LIS
SHA
ÂN
▁xấu
zou
fydd
▁Hàng
leis
▁advice
alaman
pasa
aller
fili
▁Jog
▁dosa
▁suum
▁arena
▁Lagi
▁amerikan
▁07.
▁gha
round
telia
щик
UST
chol
▁proda
ciel
vey
▁5-10
▁spillet
▁gigant
▁marah
▁Jobb
▁rupa
▁좋아
inkin
рия
▁certifica
sv
▁soda
▁sluit
IRE
▁Khoa
tons
▁textil
vini
▁Jär
commerce
▁paci
▁stea
shni
▁Ý
▁Bent
▁postal
▁xếp
▁medita
▁singular
▁gle
▁zama
▁Flug
länder
▁various
kep
riam
▁Mert
▁ode
▁lão
▁merita
gav
▁Molt
▁menyi
Jan
▁dữ
share
posi
dək
▁heit
▁ear
jeri
▁AH
▁330
▁humb
level
▁Brother
▁dhaw
▁vuo
▁Mô
▁vobis
▁Hind
▁ath
▁antik
▁Odd
▁Voice
▁Giải
まる
▁metr
▁label
▁prog
graaf
zny
ikon
ovy
arts
lawan
LIA
otan
▁Pán
ndr
Est
寧
appel
▁Österreich
Les
▁sometimes
QUI
▁Credit
▁.......
▁nesi
▁itself
▁Serbi
▁parties
4000
▁slogan
UKA
▁tuoi
eff
▁swa
lami
▁register
manı
▁benefit
weyn
aldus
▁গণ
-2020
▁biên
mót
▁168
▁obert
2.1
▁147
haram
▁fête
▁tutela
▁Tổ
yuk
domin
dnik
auskas
▁Ordin
TING
voy
irse
▁Shak
▁ms
râ
▁BL
▁Yen
▁thug
▁Question
▁accepte
▁Yaz
楊
▁slimming
elni
apu
▁Collection
▁custo
▁capita
▁Olymp
barkan
▁instagram
▁Aiz
▁[1
▁metall
▁targ
▁Konkurs
▁bevor
våg
ares
DAG
▁dép
▁László
▁verre
▁Square
▁Workshop
▁Machine
▁Xuân
▁satte
▁Monday
▁Desc
neo
▁Bett
▁Gunnar
▁mees
▁zip
▁ube
thri
venue
hoo
▁estable
SEL
▁digi
▁Sham
kind
▁Cei
shem
▁nail
wki
Jaa
▁india
pū
▁prit
hail
hele
▁sair
Hotel
▁Quand
vole
khon
庆
▁178
泽
kumu
IRI
▁okay
zono
▁legate
▁RH
▁2010-
awang
shauri
▁5.1
▁ám
NIS
desse
▁NC
ôi
lauk
▁advent
éz
▁viza
harc
laska
▁Jaz
▁tầm
▁Kelantan
lösa
ước
culum
57)
▁quas
▁boga
▁Cred
▁lind
▁imagini
Ż
mino
JR
▁rive
bitur
▁Servi
Ste
▁bind
▁Utama
▁imperi
lustra
▁Venezuela
hilfe
▁Reh
▁Mondial
▁quadra
▁Út
▁wah
mika
erei
▁Beri
losti
▁tapo
zum
▁resum
▁thao
▁ape
▁rehabilita
cim
punta
stede
▁idiot
▁Còn
▁ambient
TIM
▁Gaza
▁editorial
▁wifi
▁Stories
▁Dali
▁vitt
cidas
...).
nita
Ạ
vö
▁prendere
▁Tower
▁κιν
greg
quote
▁dyna
▁lente
jaran
phan
▁Regen
▁wouldn
▁Atatürk
mutat
PUR
▁Skin
▁tribut
adat
▁(2016)
▁giving
tiri
▁certainly
▁Kedah
SIL
tilan
▁Sre
ieties
dva
▁Stock
▁round
ryt
ops
uille
blan
▁ICT
rail
▁Campo
▁СП
▁journal
▁concret
puram
▁Ctrl
▁maca
▁ritual
▁decided
▁Nat
suit
▁resim
▁marts
▁Pati
▁berte
▁political
zame
lijn
▁Mutter
lix
harap
Apa
attend
badi
▁grob
▁neap
▁Hansen
浩
旺
▁-1
▁lyrics
NGO
▁combate
▁Omni
straat
▁skri
centi
▁kalb
▁Spur
▁Prem
have
▁coco
Real
beda
veda
enky
▁IC
▁Hòa
▁Đường
ZEN
▁Edge
puls
Share
roso
▁Jum
▁MIN
▁membre
▁behin
▁Lamp
▁gluten
▁mui
▁Wali
mall
▁trump
21)
rion
psa
▁VAN
Ye
天下
ences
▁compare
==
▁Tradi
▁primavera
YAN
▁Diamond
▁Slav
familie
▁nero
nema
▁Zap
jj
▁quên
108
guri
▁tags
posa
NOS
▁mót
▁solat
▁spara
falt
▁Yesu
yka
▁Track
▁grands
DES
Ố
▁sacerdot
▁impossible
▁Lege
milia
▁dubbel
晴
seng
▁ramen
▁goal
▁Аляксандр
content
CES
▁Arra
▁poni
▁vibra
▁Kopi
gebouw
lank
kund
▁1,1
▁balla
▁Lue
econ
IND
▁DOM
崎
▁Medical
zaka
▁achieve
▁skry
bite
▁popolo
▁Klas
▁tub
kking
▁petites
▁Editor
▁turned
▁sente
musik
espai
DH
▁Lige
jol
hik
ō
▁faris
▁Trước
Life
▁tipe
▁quickly
▁terms
▁Umar
čina
rück
ận
koop
▁couldn
▁MR
cian
տալ
indica
▁elegan
▁Ismail
,7%
▁Paro
▁ula
▁spare
▁vitu
▁popo
FL
tegia
▁tấn
nove
▁tặng
▁hektar
▁laisse
Ed
czo
▁repe
▁Iraq
▁palestin
▁profiter
ilka
▁centri
▁flores
SIS
▁figli
nell
▁mão
▁artes
EKO
▁Madi
▁Kunde
▁Veja
▁lena
▁Miami
▁Rø
▁staro
▁centr
▁Nici
вода
▁forta
pirk
1995
Son
waarde
52)
▁Slot
▁Hạ
▁codi
bbel
retan
Ng
GC
kopi
charge
ikut
dosta
▁tennis
▁phr
▁Cath
moj
▁Zim
wich
▁Herman
▁Gael
büro
profe
泥
▁guld
know
▁Lama
▁Atom
▁Sinh
GDP
▁János
▁חר
▁Sarawak
MDB
▁komin
▁Schweiz
tnik
▁Malik
tuv
human
jelen
▁pluri
姓
erint
gget
fani
holi
odh
▁Nog
▁podat
dded
▁Mez
▁contrast
Et
▁Sarajevo
▁Maribor
▁forbi
stick
▁snack
▁MTV
▁slad
luv
▁Artist
▁Puh
▁maggiore
▁quê
Af
▁Georgia
▁activities
▁hương
SHI
▁union
▁Falls
▁fordul
Kita
▁Norma
▁Poi
anj
▁ador
▁psycho
rodz
lago
winning
▁Trop
ferenc
Ban
pola
▁araka
▁gC
▁plugin
▁Fad
vori
▁Laser
▁valde
▁concedi
űr
▁ibi
▁glaz
廉
writer
naan
▁Teri
vít
origine
▁halu
Time
▁HOME
▁tanker
▁ponte
▁Eve
RAH
▁gesti
▁SEN
carre
齊
▁2.000
▁Chro
▁marti
vamo
▁08:00
▁vaz
▁Klass
▁changement
times
nies
▁khan
2.2
▁Sakit
passen
gita
▁combine
▁Usa
AME
domi
▁Pál
listi
▁prepo
▁Oliver
▁shafi
▁Lub
▁Halk
Ả
UTA
▁너
琳
▁Halloween
tomat
▁diario
▁Valley
świę
▁sno
▁1,7
ifs
▁mối
ập
dista
▁(30)
55)
kaus
▁transparent
▁odd
▁tros
peta
taran
taq
▁Ace
悟
messen
▁ONLINE
▁award
moja
Bank
▁Krista
▁tone
▁Kno
▁afara
▁1913
▁Orient
▁logi
▁(?)
kram
rades
авіч
▁Παν
zano
适
▁italiani
▁lector
bër
IES
▁speak
▁poor
▁erro
limo
▁zar
▁TUR
reach
baj
▁niko
▁ratio
rozen
▁Precis
tsje
▁pillu
▁angka
NM
nggi
▁evita
tube
▁Phụ
▁reserved
suka
▁hosting
▁gloria
▁Katha
▁Jens
▁Kira
ığı
▁Expert
ernas
▁chàng
ละคร
fors
▁Cher
ENDA
▁contain
conf
▁COR
istische
▁persist
▁connu
Live
snitt
lepas
▁tume
▁Bude
▁Iron
kuba
SUS
▁Kirk
澳門
▁acer
▁Council
▁Nintendo
▁upload
rwa
prov
▁dalk
▁resort
▁balio
sep
▁184
▁Description
World
▁Pok
bov
▁jon
empat
▁Tesla
▁MIL
▁yor
ovina
▁terrain
adhi
▁negro
▁lina
TOP
zari
▁sexo
謝
▁HEL
istri
▁toti
estar
Gal
sano
hake
シャ
虫
▁İbrahim
▁syr
EO
▁uva
▁claus
jada
▁relativa
öp
▁Cole
▁sandal
break
▁Zoo
tical
律
dder
▁arrangement
rilla
icis
▁1926
1990
wé
▁dạ
▁Amer
kên
▁Tava
mella
▁internal
▁quart
▁Ms
good
mize
▁salve
▁Lut
scope
▁ampli
▁Know
▁organiser
▁namaz
▁gate
cules
nent
▁Rico
zuar
isere
▁Content
ASS
▁thụ
▁centres
radd
▁8.1
plati
maran
▁eva
▁2-0
▁masser
▁tươi
▁Roulette
">
▁beso
▁bras
ınca
hole
▁metra
▁jeans
poro
bell
▁lur
çılar
▁Mimo
▁certificat
inat
▁Vent
lyse
▁Jorge
spin
▁Dispo
▁Bashk
▁Bek
▁traduc
arias
condi
▁Platform
▁1927
XT
▁disease
ambu
ulang
▁Sweden
▁biro
▁Handel
count
▁menstrua
▁Ży
370
wach
▁Haag
▁Sök
ício
▁Fon
pust
rind
264
▁Otto
▁trừ
▁bond
ayeen
▁expand
▁commence
bem
▁kome
▁thầy
▁paste
▁maxime
urta
▁delicat
▁hest
Od
▁burg
▁Paar
▁cron
iyang
▁Alo
▁nata
▁mab
▁lampa
▁Drog
▁Jú
nić
ňov
▁Mountain
▁stipendi
▁reflex
Energ
▁(2010)
jong
▁breath
▁copie
▁edu
53)
mija
karna
gant
kont
▁Tõ
geen
active
activ
▁850
mú
▁dương
vedi
kowski
▁Ident
ofa
▁Guy
▁Perak
polski
nách
čov
jesh
▁Amal
▁grama
▁pagu
▁Vah
▁occidental
▁Charlie
ikoa
▁09.
▁zoo
▁marker
▁oran
icul
▁dono
gura
▁diff
▁Bern
Max
▁Anima
▁lương
▁lots
dys
rky
▁Yazı
▁tebe
wahi
▁husband
▁redde
▁Svo
▁Ner
▁fixe
▁astu
ically
▁dicht
istica
qiy
▁DEN
▁03.
▁ngang
wiesen
▁catalog
▁pareja
▁tere
狼
▁formular
resa
▁helm
▁Stati
▁Maal
▁Fag
lhas
stige
ács
▁intenta
▁pertinent
▁Strona
▁Geni
ministeri
▁Pravi
▁definit
▁marr
enko
lied
kumar
▁Trondheim
▁nắm
▁maskin
▁heu
cd
▁surface
rua
rale
adore
▁spra
timin
UX
brik
▁Natura
OLE
griff
▁Asha
▁NR
乌
▁moderat
hiver
▁SUV
▁Tokyo
tô
▁Jal
▁specifica
▁Marti
▁ruch
▁Sue
▁12.00
▁syns
▁trading
▁identific
Str
58)
▁Ở
▁Marian
Med
malli
qual
▁142
賀
▁endlich
senter
tuma
alak
▁Cit
▁Zon
▁agor
▁Gé
▁Hj
rski
tego
usha
ddar
▁Slu
▁1700
llisia
▁iphone
▁inclu
antha
ancia
▁marcas
▁nano
▁segui
xay
sby
▁effort
sump
殿
▁Bệnh
▁ấn
▁Doma
▁röst
▁teri
▁avoid
luci
grat
▁Hori
▁transmit
tike
hty
▁Barne
▁hư
▁CT
straße
kovo
▁casas
▁Valle
▁Vie
lew
▁alfa
vora
▁Rabbi
▁tốc
▁ataca
▁sporo
▁mots
▁execut
2,5
▁Kids
War
onga
XL
spie
▁Ruf
▁mangler
OLI
▁Easy
party
▁Ры
▁flexibil
dahan
mast
ahin
▁ambas
ians
▁mesos
èr
▁dáng
▁sake
argent
▁Instru
▁magnis
kkum
▁08.
oty
wur
TOK
▁pisa
▁nude
kerne
▁Morgan
ough
▁paid
rommet
▁Tó
▁users
Alt
rijk
▁defect
əri
▁Police
▁inkl
sial
ruo
▁Seda
▁okup
▁fines
▁vaga
▁Deli
▁starting
▁Village
▁Jaa
verdi
▁Freitag
▁(2013)
▁Reform
▁Fili
▁Teng
▁Sze
nian
ovni
▁suspens
▁cogn
▁SIN
▁Sinne
▁Tod
▁Sec
▁tende
opis
▁aru
▁tantra
48)
ssimo
▁primero
ising
▁บาง
▁Participa
▁tụ
▁Nell
stans
▁Péter
▁nuclear
▁Giang
roy
ksu
vaz
▁mato
▁yes
away
▁Simba
▁legen
▁streng
▁ding
KAR
intele
坊
Box
tória
foni
▁movies
Yan
浦
▁kokos
plast
▁venter
lenia
tdi
ljed
▁padres
▁measure
▁transporta
▁leef
▁française
▁silti
▁load
suh
▁rakan
▁benefits
▁2022
▁2012-
▁gear
▁late
xil
awal
ulation
▁irrita
estat
▁lyf
-31
▁syd
▁vũ
pika
▁Verk
frica
▁PayPal
▁DP
▁Heil
fangen
▁Nissan
schule
▁boas
viser
▁Vos
igra
▁Hid
▁israel
KAL
NÁ
овна
Media
aru
gju
▁چم
pem
▁astro
3.5
antan
yasa
accia
īm
▁Elizabeth
▁easily
izany
byl
cham
▁facto
EPA
shire
mæl
▁morda
zii
itum
▁Luo
Kor
▁Galeri
mpon
▁Belg
▁hombres
vajo
barca
▁Bole
▁Bird
rô
▁Nigeria
▁Coca
▁Meet
bren
▁madu
rador
olva
▁amino
stico
▁Petersburg
▁blad
▁quadro
▁Soy
iani
▁limon
▁Rup
▁determin
shot
▁ministeri
▁taille
barang
▁luma
▁toy
▁torne
▁fatti
ahana
▁hop
▁prostat
▁146
TW
▁Rao
▁KP
▁Quint
▁protagonist
aktion
▁Rotterdam
▁cœur
▁rượu
▁physical
▁Pria
80%
viy
▁norway
dotto
rodu
1-2
bjerg
▁Formula
/2006
▁Eri
▁slow
▁GRA
▁Fü
▁Meter
▁Cour
▁Than
yahan
ダー
TÓ
婦
astus
Dia
▁mát
▁solicit
IYO
AX
▁roma
▁continent
▁lost
klon
She
▁bloed
▁Saturday
hb
lcev
razil
▁Conseil
hama
▁(27)
▁Тай
▁tàu
▁(!)
QA
TTI
transport
▁musique
▁Saul
lovi
▁privata
▁KER
▁sula
zv
▁terrasse
▁cali
▁Age
ppan
wab
alna
▁solidar
Um
▁Disa
▁servo
▁0,1
tlich
▁đứa
▁iTunes
▁tools
▁Familia
chor
▁04.
elka
estima
llus
▁gasi
caj
2.0
▁Valencia
▁Petri
▁Pep
Ana
▁Sinn
ruit
▁interventi
ubo
▁notes
▁Stavanger
▁CAP
[11]
▁177
eaux
waz
▁gốc
tner
▁logge
lman
▁incur
stave
▁Product
zelf
▁Soft
zami
▁zene
©
▁Clean
▁Kür
▁Constantin
xico
alny
tario
▁Salva
▁tuum
▁Barbara
knya
▁Bá
bble
▁Ciudad
▁Aarhus
▁Esper
sena
▁galvo
▁Perfect
▁Dodoma
▁156
▁arka
▁Quản
aani
▁modifi
▁WEB
▁eat
rao
Pol
▁Paula
▁FN
▁Bruno
▁svara
▁krit
▁avio
-90
▁kabar
­­
This
áte
-2011
zeli
▁Бре
siva
HC
▁Airbnb
▁admir
▁Stol
kës
▁Balti
▁183
▁arro
▁Virtual
▁impar
ctura
▁hina
▁selfs
fett
▁Dyna
▁Ministri
▁impre
▁explain
Des
▁nen
琴
▁Equip
▁Jensen
▁Visual
▁σα
iej
▁gentil
▁czar
LANG
asso
verne
▁Nice
▁Jobs
▁Brez
▁Barri
▁geg
▁Palace
20)
▁BMT
▁Stri
cava
▁opening
patia
SIM
▁Dhu
▁Holding
▁Agama
Qur
jest
▁mik
▁decor
▁Nemo
kán
▁austral
Mark
▁reten
NF
▁Dire
▁astea
Kr
▁Transfer
hud
▁Hör
▁chud
▁Kapoor
MY
▁Mans
wp
▁Rek
03.2018
-2010
▁Veli
steig
▁sortie
▁Giu
▁smer
▁ruin
錄
issimi
objectif
▁2005,
blé
yad
anju
ραν
▁gemi
芝
▁Pilipinas
▁κέντρο
▁Challenge
▁Carmen
reform
▁login
▁happened
▁bordo
mning
Vol
▁fada
utama
▁Bó
DAS
zı
▁buni
fire
▁Rayon
Benz
tkin
▁beren
▁vini
bric
vuo
ธนาคาร
▁Jesús
läggning
ério
▁Instrument
▁Bing
▁CF
▁tuma
kuna
▁sorti
layo
▁Boo
ayat
venir
▁Inge
.12.2018
▁đám
euro
rrean
▁Politic
▁Savo
▁Zir
▁Esa
qy
usios
Ok
mije
▁(2014)
teren
help
▁Nema
▁destin
▁rè
▁Utili
▁Cash
▁aval
▁startup
chatting
▁jud
▁Bada
λευ
▁orgasm
fers
Super
▁proteg
▁Canal
▁yoku
▁Antes
▁sergi
▁piena
mania
butan
▁205
▁aran
▁dominant
▁forex
▁bombard
▁newspaper
▁Giới
▁Roy
▁tref
XC
▁deren
▁theme
▁fres
▁Krieg
pallo
жел
▁intrat
▁installer
pka
programma
▁ulei
▁mna
abel
tland
reste
▁Sache
"),
▁Member
▁Afrikaans
ezen
urra
lex
▁Nẵng
hatra
▁practic
hnung
tumis
▁Fiat
▁bane
rece
▁Debat
▁Pauli
VID
pravi
▁gà
▁bangla
▁cala
rezza
▁(28)
polit
▁beneficiar
▁tona
bril
▁nowy
diet
▁lenni
▁Hud
▁ati
messa
▁Susi
▁SOS
▁ubu
rann
▁Ime
▁Javascript
▁tsi
▁pseudo
▁Republika
▁tana
objet
▁raga
▁CAS
▁emerge
API
▁shko
▁Mass
íc
KH
▁Ec
guen
gb
▁toote
Tri
handler
▁beras
▁feet
▁hí
gaj
▁Must
mys
▁tui
▁Alberto
▁Reich
▁Colombia
▁Secretaria
▁dz
▁notebook
▁eko
kao
porte
SG
Esta
47)
fier
▁haza
▁reserv
▁concreto
ực
▁Cornel
▁Tali
pene
▁GS
rle
krom
taal
NAK
kkur
paper
insta
timet
▁Cym
▁enfin
▁ngắn
▁Wis
▁Được
▁Swe
▁canon
ágy
úp
nize
anci
▁fiche
▁sortiment
gta
▁ghé
modo
bū
vó
▁jobs
▁thù
▁citat
kkar
▁kori
zala
▁matar
▁calcula
ysk
黒
▁cene
▁București
rih
▁gelo
▁Spirit
▁Sonder
▁Mẹ
trol
dija
▁Km
âge
▁Nid
▁ull
fus
ừng
▁Hå
▁haf
ไท
ayn
▁Sey
▁AE
ägg
▁Meine
▁qas
▁SRI
▁fout
▁Valmi
▁agre
戸
▁López
vell
letes
▁promove
▁Kanal
▁Method
▁Rex
▁Keski
evan
▁ipsi
▁Nove
▁Suma
▁negativa
hini
–19
▁perd
guda
▁NAV
▁Phó
▁20.000
▁lait
aquí
▁Moje
ched
daran
▁ferme
▁sell
己
▁Whatsapp
▁Benjamin
▁Prev
idhe
hirap
▁consistent
▁Amen
▁Boa
▁Alfred
toxic
iště
buat
▁Soomaali
▁langit
▁fera
▁Consiglio
56)
8/
emon
modell
▁credo
verge
-2013
GIA
dano
went
ZP
▁Divers
▁Tots
avam
▁restaurants
▁Lucas
▁kip
▁makro
oksid
▁Country
▁mechan
alba
▁phiên
ups
▁root
▁garan
▁plato
▁Nata
▁bảng
mille
▁Maan
ssos
rabia
▁bestuur
ZS
likt
▁Orange
▁nah
▁titi
industrie
▁Suite
▁roze
▁reduc
▁grosse
pain
▁Terre
▁floor
▁occur
▁directo
sidi
▁cabe
▁Tark
統
▁costum
ỡ
▁hommes
▁gone
mpana
/20
▁Tengah
BM
▁palabra
▁squadra
loko
zej
psis
▁nauti
▁mester
▁0,3
idhi
▁henge
keri
▁EG
▁creati
▁SEC
vimo
▁FR
▁compa
▁onko
pne
▁NAM
VB
▁Gees
alem
▁PlayStation
▁lance
▁deliver
EUR
taler
halen
▁huaj
▁pictures
▁labo
▁penetra
▁hl
rique
gau
▁agrega
▁Azad
▁command
▁Partido
▁ods
▁Talk
▁Neue
▁Cui
拳
▁tl
ject
▁Kesk
GV
▁playing
▁Meu
▁device
ượng
phon
▁temo
▁Protest
▁received
kub
▁SAT
▁Primo
▁naha
▁pomer
▁posting
venta
放送
▁Tarragona
▁ấm
ahir
▁dicen
pisy
▁hundred
▁asiat
rose
antu
▁defa
CY
▁rene
katzen
entitat
ragon
tepe
Apple
▁Quant
▁Lat
▁Airlines
▁pistol
By
▁Hope
▁Petit
▁gỗ
Zu
▁tierra
Online
ülü
wb
▁Helt
▁(*
▁jeux
inud
▁involved
▁inner
arsi
▁biblio
buran
▁Fac
▁Lern
riai
▁alone
usio
cule
▁sociali
▁koor
▁stai
cycle
▁consult
▁mời
▁Matka
assurance
ruth
yey
▁Tinggi
rente
▁16.00
hair
▁imprese
▁rô
▁Bee
▁Helen
onas
▁recog
▁CNN
▁1,000
▁IE
▁concerto
▁Kv
▁garn
uck
arb
BET
▁raun
鄭
somme
▁Distribu
▁thở
hip
▁(2012)
ึง
WC
hawa
▁pude
yarak
...]
LJ
mäe
quest
iswa
prog
▁infect
▁Lec
▁tái
▁Plant
▁banner
font
itten
▁rheol
▁Wax
▁Rez
tezza
▁welches
▁propo
▁Bangkok
▁lex
▁bè
▁growth
▁06.
▁Saba
▁merit
▁hypo
Twitter
▁visible
chou
belt
STAN
ANTI
hic
▁alas
▁Utara
▁abin
▁Senhor
▁circum
▁Ağ
▁Kid
ṃ
▁zob
▁ital
impa
▁humanitar
▁Espa
▁incl
▁Titan
▁zones
▁Beck
reichen
ivel
anana
▁vintage
▁falsa
Tele
▁nasc
iglia
oče
diko
rías
▁Bili
▁indem
மணி
▁reply
▁Fik
▁nabo
sasa
droom
▁leda
▁goob
▁voluntat
▁compliment
sulta
▁felicit
▁Lep
uvad
▁trúc
folge
▁staf
vania
▁peal
▁Skor
▁Pazar
AGE
▁created
▁alternat
▁keta
▁Innova
edik
▁stream
-300
zida
▁keur
tags
▁rigor
BAT
atia
vur
namen
TEK
capaci
▁Boc
▁Marcel
▁Iga
▁roa
▁Parque
▁yeh
boa
két
▁feminin
aysay
▁fabricant
▁Juga
▁padi
lesi
mbr
▁bergan
naire
gulo
▁Gobolka
tamento
▁bitcoin
▁1100
abril
sib
▁maintain
▁innovation
Pen
▁Theater
▁Andrej
▁159
▁Coin
USB
enos
▁skla
▁extraordinar
▁tarka
▁Barack
jec
▁Prag
▁unum
▁(29
scul
raden
▁jangka
▁فری
suse
อร
1]
FX
戀
▁Bucureşti
ffy
elde
▁gives
▁Austri
▁prec
▁Erd
ddin
2°
pump
with
kow
OUR
▁Grill
▁importe
pane
dakah
▁suốt
▁Fundación
kale
▁Mauri
onde
▁Wam
zama
▁148
▁Divi
▁siti
▁Gio
▁ventil
▁Lao
dino
▁đợi
▁Thư
gora
zep
▁materials
▁decis
▁Aw
010
oke
▁plug
gelse
▁Basis
▁spera
▁kinne
▁Zona
flor
ZZ
▁marin
▁naba
lania
▁miser
▁Cala
udin
▁Palestin
▁salat
▁Kristen
▁accidente
▁hardware
▁siri
▁Cover
▁jorden
amentos
▁153
▁leit
▁Chinese
▁sonda
elve
tuo
▁soát
BK
▁henni
schied
▁simili
▁fjor
▁Vezi
tzu
buz
hallen
ぼ
mr
▁ramp
▁systems
▁koto
320
europe
aysan
▁cir
1993
1991
▁Daug
▁Once
Ez
bilitat
▁Pasal
▁Alpha
gato
étique
bent
بوت
sug
fjord
dret
aab
▁huyết
▁nostalgi
▁background
▁tibbi
▁201
cked
oxy
▁chambre
▁Scar
▁naturali
▁Phát
▁Wonder
uté
▁utiliser
▁divulga
KIA
▁Reino
▁Deput
KOM
▁sinal
melt
▁snap
tagen
▁pila
kön
▁spad
▁Agoda
▁Chance
▁Druck
▁extern
▁countries
▁Rita
mentul
▁Jie
viera
▁cloud
0°
zve
▁relationship
▁menar
▁portu
wany
EET
Cat
▁ADA
γό
AVI
ASE
▁Tuan
brati
ốn
▁description
stopp
▁왕
▁Centra
傑
pán
郡
▁Naam
▁daughter
gede
▁Dí
▁ceste
ラー
reve
▁reserve
▁thí
▁‡
▁window
gok
▁rajo
wazi
virus
GRE
▁augu
▁Volks
▁hóp
▁2025
▁Snow
▁ajut
▁pause
maskin
deira
Mak
▁Consum
▁CB
.05.2018
pedia
▁5.000
vasti
▁Дуб
hihi
based
▁ING
▁Tör
▁puse
▁Sit
▁investment
▁krep
▁stylu
informati
▁Dib
▁lì
▁abil
▁respons
pind
▁invite
cias
zok
▁oes
▁danger
▁Bulan
▁GOD
▁Fateh
▁storm
▁ulterior
posit
▁hetero
▁arama
▁conversation
007
▁NIE
▁Brod
sjes
▁MES
▁rebel
オー
▁droits
▁obten
▁Litt
▁Fax
▁Zuid
▁Follow
▁slog
▁piu
▁Nil
▁Strom
duct
▁Turun
▁gaude
4/
trieb
ovka
▁Kush
▁boom
yari
▁pink
houd
sanya
▁bismo
ạo
akku
▁annual
▁Tama
▁Kent
▁historier
mitta
▁Vat
▁BC
torial
[12]
łego
▁Idea
▁bedst
xana
olas
▁viaggi
NOV
atum
▁2/3
▁quà
▁Lewis
▁variable
126
▁Prov
▁ponos
zier
▁matrimonio
▁discurso
wati
▁Miet
tunt
seite
▁Kritik
▁smal
duction
BV
▁7,5
▁Köln
▁gern
gesetz
1992
ggia
reid
▁kocha
▁groen
wasser
▁10000
▁Emo
agoa
vlad
▁wilde
▁proved
heni
otus
▁Bald
▁fiesta
▁Moda
▁xer
▁Fins
▁tw
燕
atin
0)
lecti
▁minit
▁ước
▁propus
sung
▁aperta
amor
▁higher
▁Leng
▁electro
▁dramat
▁farge
keh
▁Revolu
▁lă
▁Boj
▁Kết
cionais
▁(29)
▁Matti
▁Conce
▁MH
sulat
▁tắc
elte
▁Tahir
▁Belle
666
▁enti
izate
▁projects
dziej
▁Source
etet
▁memori
ις
▁Second
imize
▁bagong
▁Details
kora
grip
▁Perse
çon
▁GM
28)
▁ensi
jeng
bæk
▁button
▁finally
▁tenia
kull
▁parasti
▁Congress
yish
▁Bă
▁Dik
▁Melaka
▁fell
▁baile
▁jah
▁SAW
suf
irane
rista
erant
▁japan
▁domain
▁multum
▁рыб
▁romp
▁terse
▁11.00
▁demon
▁Universit
hidrat
ORG
▁bless
▁dvor
49)
▁thịt
▁9)
陶
rée
▁Tháng
▁stim
sola
fry
▁desidera
▁programmer
▁420
▁appella
▁KAL
deng
▁erant
▁Bağ
▁Give
▁Mono
Top
▁folklor
▁trauma
stani
▁ocean
▁Mission
▁Yani
▁espace
▁plec
▁ranking
pastu
▁kern
▁Innovation
▁nhiễm
▁appreciate
▁evidence
▁Tep
ultima
▁Česká
▁nk
▁Vala
appar
CON
ytt
▁Uber
윤
▁tôn
deur
▁stali
▁Pizza
gyn
▁sank
▁hue
▁SPR
szko
▁Marija
▁ulama
▁andar
▁ATM
snes
▁Krim
muni
▁Photoshop
▁canta
▁karam
▁intent
▁Piet
▁troca
▁requi
▁motion
▁stemme
Tha
▁dret
holdt
▁campus
▁Sven
▁Elke
▁đoán
▁Jude
nish
▁Kamer
mish
▁Ellen
hlen
▁Ryan
patu
▁consente
▁ninh
▁Biblio
take
āru
▁SWT
▁galo
▁Farma
ntino
▁Mã
59)
▁bonito
6000
▁Mwana
▁materie
stare
궁
hill
▁Respublika
▁Vind
HH
▁Alm
check
▁Apart
1500
▁additional
▁loved
▁folder
▁Quý
▁pirat
▁Horn
▁krypt
▁Devi
▁turne
▁Handels
▁gare
▁faham
haba
JAN
▁gogo
hafa
▁Olet
▁Penge
▁bày
▁haga
miga
▁162
▁luta
▁158
▁Libro
ồi
pose
taro
▁duro
ène
ặ
▁bát
▁Salt
▁Tramp
▁Item
▁Loch
▁fight
▁Iako
▁Vương
kaza
dham
USE
heer
ikud
vais
Col
ably
▁Tito
▁Darba
kosi
▁faa
▁Schw
høj
▁lõi
opter
ncin
▁vairs
▁18+
沖
▁Antal
▁password
▁dema
▁Pakatan
▁09:00
▁KOR
▁Quang
▁vc
▁longue
teiro
▁leath
▁accent
▁trus
▁holda
iako
Shi
▁núi
Met
▁brain
▁stok
inek
▁rodin
Ji
▁dedicato
▁Archi
▁157
minum
▁kí
▁risposta
▁Când
lianza
MOR
▁enw
leka
▁expon
▁5,5
agd
▁Ever
▁anna
▁1⁄2
▁Where
▁cima
primer
Tan
▁shan
мба
Plan
▁pita
▁recently
fart
▁experts
▁(=
RW
amies
▁urbano
xio
linger
▁Diploma
GL
Ś
fere
▁Dah
▁olgan
boll
▁Ža
lét
rase
▁universo
▁proche
▁trovato
▁Muse
▁prosper
▁Sandra
坪
▁[+]
oze
▁balo
▁Conserva
▁integrat
isana
MES
▁Solu
▁Praze
▁$2
▁Oggi
▁biste
050
ecký
▁Jav
▁Math
▁Osim
▁tampa
▁Andersen
▁Gross
▁MAC
▁stanno
ICH
▁pry
riana
▁SOL
▁pater
▁hout
giz
ATO
▁sice
verte
▁destination
▁vises
gp
▁ferro
/07
▁Prae
▁Nicola
museum
▁Koz
▁Grab
▁huske
▁piz
▁bole
Ant
PJ
▁barat
ksin
jian
Shop
winkel
retter
▁cair
▁analyser
1994
▁interact
▁verbal
trik
홍
mom
jie
panga
OTE
▁degusta
▁MIT
▁weld
flan
GF
▁regim
▁anatin
▁roba
▁logis
▁koster
▁Economic
▁nogal
iyaha
ÃO
▁Malo
HN
▁Stalin
▁soldi
▁trik
welt
loze
runk
▁bero
NDE
▁schoon
prob
oppi
diye
▁Pilot
grand
밥
▁geste
▁3.000
▁Makan
▁individuals
▁presidenti
ovic
nggal
▁capacitat
▁tsara
▁Berna
▁temper
υρο
▁Area
▁brune
▁impedi
▁tester
▁Frem
▁Folke
shka
凌
bunt
guzi
▁Chennai
▁vertical
▁Interview
torius
prak
▁Punjab
▁tattoo
luh
▁2011-
▁Arthur
▁trao
▁Universidad
irii
bling
▁Yên
▁string
▁380
ciente
▁dát
▁NON
▁Sund
tema
▁Niin
moi
PON
▁Ges
▁gomb
▁tulos
nous
▁2,3
▁Suites
▁141
▁atac
lh
▁Rodríguez
▁thuyết
▁ambula
▁degree
▁presiden
▁Suo
▁buss
bait
vann
▁ober
▁dispo
nggo
huizen
▁keele
▁balas
▁Summer
▁Bilgi
▁arian
▁draw
TECH
gener
▁deniz
▁arg
▁MEM
marked
casa
▁acel
muna
▁Cook
孫
sona
▁coffee
ndere
▁influence
teman
▁Circ
▁rendere
▁NAS
Mat
punan
▁satelit
▁maska
▁نج
hell
▁fluid
rogen
estas
▁Jord
दास
▁dụ
Kal
▁Yak
ckar
▁Đầu
Vir
▁Charlotte
▁Hình
▁conflict
▁Much
▁mừng
▁Michal
▁lide
▁lemn
handle
▁QR
▁Photos
▁somit
▁fantast
▁Linn
▁nét
cand
dosh
nasta
▁rút
sidor
▁indar
▁biler
2,000
▁Princip
ète
▁Meli
▁Ramon
▁Kanton
▁đức
▁gelin
▁Rado
▁李
▁recol
▁edition
avis
▁Ninh
▁tappa
▁malik
saday
▁mush
▁ruk
eigen
▁Maksim
▁Malam
zeni
report
ykite
▁amateur
▁Gat
▁worked
УТ
瑪
GET
▁Iglesia
▁Medicina
▁Berat
▁efforts
spring
▁Eugen
▁manche
ously
liner
▁immobili
VG
agens
Out
▁soleil
▁Світ
etxea
▁1.8
▁heta
▁Kato
▁romantic
▁IG
▁refugi
elé
▁20-30
▁langue
▁raid
ISH
▁Unde
▁bayar
▁Saha
▁awesome
Kat
▁Magnus
▁Banda
pension
▁Rhy
▁proud
arat
▁curios
rín
htm
wic
▁rule
▁Vesel
▁EE
▁plyn
prote
sata
▁Lock
Bro
▁176
▁(*)
ELLE
▁Oda
▁xen
▁RP
▁costat
▁Belo
metre
▁Policy
▁twa
hout
▁Pret
▁chiếu
▁dico
امة
CAR
▁makna
▁Sac
▁pilota
TIS
▁heat
▁mạch
▁Kép
lukan
▁literat
▁NEW
KIT
izy
▁Edu
▁pence
LUM
xus
Fu
Bel
▁Rü
▁tonn
elmi
▁dhow
▁kava
▁procedur
▁HK
▁4.3
linin
euros
▁tunnel
▁judicial
▁Australi
abban
HOR
▁azul
ghan
▁Block
▁useful
▁vendet
nutie
▁discipline
asach
ńcz
▁contamina
-200
▁arran
▁humanit
枝
fråga
torie
gori
▁perspective
▁Shopping
▁publish
▁Ticket
▁Jedi
▁3.3
▁Philips
▁gris
rasti
nele
▁215
▁innovative
230
doni
▁Liza
▁docent
▁sham
amon
▁Jama
▁20.00
▁Size
▁Dak
▁Serbia
pion
install
4,5
▁Liel
▁Cancel
▁talla
▁campaign
▁Yusuf
licita
▁Goed
shma
▁changer
lds
▁Limited
▁gari
trekker
▁Uw
▁Georg
▁212
▁Meld
▁14.00
distrikt
▁Bona
SAR
▁Obra
▁Pengu
▁Glu
▁Walter
▁honey
▁Muk
oane
BEN
▁regal
zero
rikan
▁luci
▁ignora
▁nửa
▁hoá
kang
▁straight
▁sawa
▁hed
▁Âu
▁Coco
▁evin
biec
direct
▁garden
▁KS
urri
▁UL
▁filtre
▁stane
arım
order
-70
▁disko
▁slet
▁Publica
▁siglo
▁Bod
miti
▁italiane
▁Fern
▁milliard
DZ
▁Beograd
▁AFP
▁Dzi
▁Henri
▁Karte
▁Gest
AMU
▁2,4
fallen
pine
剑
繼
▁Rhe
▁Mohammed
▁indispensable
▁đẳng
▁1911
▁Sf
▁provok
ptu
stest
▁Düz
▁byw
▁état
vante
▁lateral
AZA
▁前
▁nung
▁Proje
▁began
▁adus
▁Automobil
bridge
▁grant
bied
▁aca
▁Cell
▁Nech
▁Sofia
demo
▁universitat
▁hung
▁ún
▁paru
boot
▁nauja
▁Tiểu
▁Brussel
▁anat
▁exhibi
resc
▁biện
▁plasma
▁سلطان
▁Fed
tiye
▁kono
▁jugo
▁Fabi
▁Vald
▁statistic
▁pair
▁balcon
▁Lust
radu
▁TC
27)
Red
▁elements
▁SQL
▁abonnement
▁bando
柏
▁nguyện
▁schedule
.06.2018
▁Rev
▁gars
จู
▁tồn
Far
▁manos
▁cola
▁chair
faz
▁Gór
▁definition
region
▁vehicle
▁Rol
▁maladie
▁pivo
iac
ginti
brit
▁Uzun
ential
▁Morav
▁proposa
▁career
▁Kram
▁Câu
▁bam
alainen
▁Gusto
1.3
▁Jor
▁Igor
meh
▁Diya
▁Feld
▁9:00
▁strict
▁vay
▁HC
▁chặt
▁Esperant
▁RC
▁1908
uqa
▁wedding
▁licenc
lanka
▁pressure
▁bear
▁mob
torum
korea
▁Finance
▁hoteli
iams
KOL
▁SPORT
informa
▁pâ
mbala
▁Porsche
▁Order
▁Industrial
skt
▁Mult
HCM
▁meli
AMP
▁Carrer
▁2017)
tiene
▁lansat
▁Trav
▁Thánh
▁falla
▁Norden
▁conduce
▁cî
▁ability
▁thoát
ếp
Next
▁VG
soma
▁rute
zimmer
▁iPod
▁safari
▁kato
▁Boden
expert
stag
hwy
logia
nifica
miste
邪
輝
▁xung
▁Cent
▁Oku
ộc
veren
lón
▁154
fă
ới
▁Cet
▁aluminium
block
▁raus
books
κρα
▁Julian
tery
פורט
trici
▁Hausa
Free
▁Viva
GRA
RUM
▁provider
▁TIN
raw
▁uji
vitamin
verb
palo
Kau
nera
▁stilling
▁pile
▁accessible
klud
▁vala
vazi
▁Sca
▁Toma
cenie
nging
olon
▁lành
imat
▁15.00
kapa
endre
▁Rac
▁Guardian
▁sert
▁Zone
▁Reka
▁discret
▁motivi
▁Durant
ジュ
▁Tất
▁Thương
▁pH
bben
ТВ
▁amore
hö
▁Proces
▁Ege
gawe
▁Money
▁mandato
▁Revista
nista
terv
▁Soc
▁cuốn
▁cerve
▁0,2
▁arts
▁apk
IFA
▁laver
tase
▁Tiger
▁Dù
▁dll
▁gratul
▁patienter
▁Recept
▁0.5
▁quota
▁wrinkles
▁Lưu
TEC
▁(2011)
▁quiz
▁oblast
128
▁Sme
YU
See
americano
▁berean
▁dipa
LN
riq
OSS
pored
▁nạ
▁engage
▁intermedi
musi
▁fonds
bica
▁8000
▁gore
lingan
How
Var
▁photograph
▁1,0
parol
▁Denk
▁Joh
Pal
▁election
▁Reng
▁Banka
▁brott
▁Comunica
▁akka
▁chaud
▁attempt
..........
▁safety
▁POST
▁welcome
cando
▁32.
manns
▁đón
▁Sof
▁Pastor
irat
chon
12.2017
mult
fres
oida
▁Mio
▁oddi
zenia
▁exercise
▁perfecto
▁halua
▁latina
control
▁Roj
▁sueño
▁cle
nemen
▁payment
▁Nit
▁Cộng
▁Saga
▁Spot
63)
▁Jelen
Commerce
▁Eski
ÁT
▁murit
▁Atlant
eissa
lõ
▁Ramazan
circ
▁SEX
▁Departamento
▁Consulta
▁Quid
impression
▁LP
▁họp
▁Constru
▁laag
ginn
▁sensible
▁Camping
bib
▁legg
كيم
arski
▁Kär
jab
culi
narod
▁contesta
▁corresponde
▁gyv
vena
ပထမ
▁Ngân
Gar
▁Mexico
Bil
▁fati
▁magasin
▁Nek
gast
▁berge
▁Lion
But
▁Pole
arto
pasta
▁exit
yeti
▁Nieder
▁tempora
ird
Euro
▁Apostol
▁Rog
Ậ
▁cháu
2.8
▁mudar
▁ludi
▁पठ
UDA
▁YOU
▁Maji
aldean
▁dri
chop
OF
▁gió
0-1
▁Slim
▁malas
BF
Iz
▁Bukit
▁cache
▁Cle
▁divin
lup
▁PV
cius
▁dance
▁Nová
sminister
▁163
▁Presse
May
▁Sean
yiz
▁currently
▁obvi
乃
hata
3,4
kanal
ural
hea
▁finance
ozo
ndak
▁fundi
▁Marine
▁1998.
IWA
khona
heb
▁parere
toris
▁Rain
▁Monta
IPA
leo
▁Bomb
▁râ
geme
▁GAL
▁Portu
▁Milo
▁chuyến
▁legale
▁riserva
▁kva
▁habere
rosa
▁asam
▁disposa
▁literar
suku
▁Nation
hava
uș
▁Wales
▁Jet
▁umbes
▁unhas
SSA
odat
hine
▁sille
tager
▁Vater
▁Batman
mmat
▁promotion
ULT
▁damage
▁humil
▁prochain
▁Gon
▁Phần
nbsp
5.00
▁argent
▁conoce
▁nostrum
▁sabato
▁sken
MON
άνα
▁FEL
▁Kral
▁vinde
▁Dell
▁Ukraine
▁domicili
▁discuti
shiq
▁component
Пе
former
telo
▁designed
▁wens
▁imparti
▁presti
▁ascend
▁Animal
1:
ạp
▁brus
5,00
24)
meng
mbara
▁Hd
▁5.5
▁lược
ónica
▁kisha
idest
-45
▁Oba
▁Uten
assurer
inak
▁cresc
ciri
▁PET
▁Oj
alala
moli
debat
▁vén
▁incomp
▁ibn
▁vip
▁brother
▁gabi
▁Campus
▁Ruh
▁unes
▁Gaya
klassen
▁primeros
▁Short
▁stond
atii
▁hada
▁Ulu
▁cristal
▁Hindu
▁SSD
np
▁sportive
▁rude
▁lunes
▁Cosa
UV
▁veti
▁Keep
▁Guest
▁đỡ
abbat
÷
▁epidemi
boga
▁Lịch
dati
▁average
IAS
bolaget
▁FBI
yaz
▁ngũ
▁Lager
▁6,5
alach
▁Stud
▁Lleida
▁sapa
/100
▁externa
▁pares
tsika
▁0%
▁99%
quita
aaaaa
▁Jom
▁zehn
▁vitam
hany
▁launch
lassa
nosci
▁Katso
ginta
▁Bade
rovi
▁locales
▁Česko
VII
▁Ero
▁Quad
▁Chemi
▁Slo
▁Avan
feder
mui
▁vee
bility
▁Tato
▁Books
▁SAP
modul
▁Warszawa
▁mismos
▁Nghị
▁intensa
▁autom
▁Staats
▁Telekom
▁verste
LIM
▁fax
▁Siva
▁determine
▁Bên
issant
geli
▁izba
▁166
▁lenger
▁Singer
▁muga
▁Hồng
▁Wet
▁perigo
akor
▁Hög
▁rendi
nassa
▁clair
▁Dollar
▁Haram
▁Ayu
ticos
▁Rosen
LAD
▁Maybe
▁Nors
zun
ETS
▁curi
▁ark
tya
▁Bide
▁arren
▁Konst
▁PKR
▁hồn
siri
▁İmam
▁globo
umine
▁Generation
▁2020.
▁Ordu
caso
▁Opis
▁Sut
CIO
▁penu
antara
▁thậm
▁Carlo
▁CHE
▁Mig
izay
▁Nazi
▁Sah
▁empre
▁Infra
chir
▁araba
▁Gericht
exp
kaka
anaya
ipari
▁traffic
▁Тал
▁toplo
bakken
▁gastro
▁retur
柳
▁Language
▁Cop
fig
oppa
▁Mum
29)
▁juri
▁involve
orten
平安
zgl
breek
▁tòa
canta
verein
▁andro
▁Đa
NR
-400
▁Puerto
▁diamant
▁trodde
.1.1
▁Tình
аги
cile
ogram
▁minima
affi
teka
▁Tabi
▁legat
▁Powered
▁3/4
inchi
REM
lce
▁traf
▁muli
▁strach
▁(50
▁chụp
▁didin
▁Movies
76)
▁Vive
▁[5]
▁demander
▁debatt
▁gola
▁Yli
▁stadium
drau
pini
▁Zero
MAX
VIL
agent
▁Luz
▁giusto
▁Certifica
dzin
▁mulla
▁Tuna
▁Nové
▁Joy
aaa
▁OT
▁POP
▁Podobn
▁Orde
lasti
Sur
▁limited
▁fals
gitt
▁boz
▁Phen
▁Nasi
Char
▁dynamic
ssimi
▁nuna
▁Church
biet
▁Moni
urd
▁Mek
▁Wunsch
▁fogo
pasi
dağ
osis
▁Level
国際
MIN
:))
▁Πο
▁BS
qil
▁Communi
ACT
▁muro
▁artistic
klare
KAS
▁geometri
▁Vig
▁tys
▁Skri
estate
gados
bow
▁TIP
▁7-8
cic
▁aulas
vella
friend
šov
▁Six
▁Sonnen
▁Ravi
▁kwart
▁Iba
▁dulce
linga
▁tuan
hã
fried
▁Panel
System
ssez
macam
66)
ellement
DG
▁rơi
▁kèm
▁Saw
▁Deste
▁Avo
▁erotic
VIS
▁Juu
▁acha
▁Opin
▁hiel
▁regret
izing
▁Dön
gami
▁monster
▁Lav
high
▁BEN
▁Ghe
▁Kend
▁kì
▁Semi
▁bura
▁10,000
fish
▁luck
▁clique
klan
▁enfant
▁dubl
768
▁costs
rance
▁dici
▁Jehovah
▁quoniam
▁thận
▁fourni
▁capta
udun
▁bếp
qir
▁Tiêu
semi
Finan
▁tunni
こそ
plats
▁fahren
▁barrio
▁Veliko
bách
▁Dialog
▁Cổ
▁Kare
▁luxe
▁curat
cert
malu
▁Vari
▁balan
ancien
楚
ówka
▁Surabaya
▁Bonjour
▁Tud
▁parfait
▁Proc
▁Sài
pensa
▁forces
▁HDMI
hotmail
-80
▁cháy
▁KAS
▁Naka
evento
▁Script
OSI
▁costume
▁Lega
intu
BRO
▁lete
タイ
CF
▁Diri
bonus
▁bedrag
kens
▁recorda
▁curta
380
▁Muhammed
▁Gallery
▁Sungai
▁Voj
robo
▁Spain
ędzi
▁expected
▁Styr
▁Duy
▁mè
▁Mich
bolt
▁mile
langen
▁radar
▁1991.
69)
▁provincial
▁gestor
ッド
ATION
▁Holz
verit
▁Tres
▁separate
isola
▁bici
▁thừa
▁Corporation
natural
njima
▁Systems
▁Hoch
cone
ṛ
▁lô
▁Boek
heil
▁piec
▁Baku
▁21:00
▁ogled
stres
yip
diyo
▁164
▁luminos
mesini
▁Cze
▁rahul
▁Dot
▁Dema
▁tria
▁facil
osz
毅
▁mayores
▁tyto
彭
▁magnifique
▁phiếu
▁trùng
▁340
▁herba
▁Giovanni
NZ
▁Üz
ounce
▁Opel
▁tette
évolution
▁truth
rén
hug
▁tangu
▁medel
▁Dost
AW
▁rov
▁SEL
YR
tyt
▁hiki
▁169
▁kw
teist
▁Šu
▁parturient
▁Said
[13]
▁juridic
jh
uras
ğun
▁scias
salamat
▁Bravo
ssar
▁dins
▁Season
▁lez
UNE
▁Laika
▁Schau
▁earn
aint
街道
▁documental
▁morale
▁keby
▁Cart
▁Roland
▁Воз
▁AUTO
icama
▁Vivi
▁Klin
quil
▁Stress
▁AY
AKU
gee
risht
▁González
▁cắt
▁fatal
แฮ
▁Sela
▁tả
▁trim
▁Budi
▁Ema
venuto
▁Shk
▁McC
ậu
▁hồng
▁Astro
▁imposto
▁ondan
▁TG
▁externe
▁passione
▁Trên
hran
LAP
▁illegal
▁Hawa
▁lưng
▁straf
▁loạn
▁Stö
▁1980-
stron
▁carry
▁Funda
▁Engel
▁MAX
USI
▁Folge
▁garis
+3
650
▁creative
havn
▁Danes
panda
ciler
26)
▁qiy
▁Ondo
CAD
▁đổ
▁Romana
avant
375
▁lake
▁kran
▁khuyến
▁Dort
▁splendid
▁Ngọc
▁trồng
▁Mihai
DOS
kawan
▁abre
CEL
▁kín
kuju
▁develop
▁turno
Ven
cento
23)
verz
▁Anderson
▁hack
historia
▁itali
▁Peli
▁Tani
▁Def
▁urdu
valent
▁ANC
atsiya
▁luxus
▁giảng
BG
▁Mambo
▁Malta
▁Lux
聴
▁serious
▁unna
▁essential
▁ganda
Uni
▁oriental
islav
isay
▁Jason
▁Rapport
▁générale
▁garde
▁pomi
▁Torino
▁testament
rapport
▁corrente
rili
▁Danh
ETT
▁prolong
▁BAL
▁flux
levy
▁avia
strum
▁treat
▁mast
cute
▁bevat
▁physique
▁Güzel
lupa
INS
▁domestic
apport
▁ROM
▁Rail
urnar
ONS
▁poem
▁Lingua
ırı
riy
▁votar
call
▁Taiwan
▁vix
▁(60
sagt
bug
pone
▁mandar
pici
ifier
▁aromat
köy
▁krooni
▁Barbie
▁Gora
dán
▁animals
▁2017:
▁scopo
▁Chap
▁alerta
mord
ringan
▁Karlov
▁これは
▁Ilmu
▁Curs
▁nhắc
▁2050
NAT
mando
▁TEM
▁Karta
लाल
hoek
hovo
numero
pewa
sports
▁efe
▁wangu
ütt
ération
▁Allahu
▁Lia
ACA
▁Nový
nine
▁Bazar
▁valgus
salt
▁creme
mell
▁József
▁vững
▁দক্ষিণ
cero
▁Lice
▁Telegram
engan
▁CPU
▁Karen
magn
▁administration
arba
ravi
▁310
beth
▁Kaca
Mere
▁34.
▁aliquo
lula
▁Alte
▁Vergi
▁2004,
▁Manda
▁appare
▁punts
▁Private
▁Gav
▁zic
▁Clear
Ev
ntibus
▁beden
pathi
▁pecca
jóð
rack
▁propra
heri
▁wants
▁matériel
▁Hussain
▁Bac
▁sols
▁Freude
▁franca
tenant
▁gisa
▁placer
▁Николай
heed
brio
▁MINI
seo
]]
▁Besi
search
▁repres
▁Baix
BANG
▁dollars
▁vinte
▁flet
▁Nikol
▁vân
ireachta
▁pell
Date
烏
▁garanci
▁halb
▁kiệm
▁hú
rone
rrera
▁adag
▁busy
▁lipsa
▁halal
valle
FK
▁tutan
Kami
▁Bax
hitra
▁Ore
kvo
story
▁Provincia
abay
iral
onnan
nisse
VÉ
ssima
▁Hora
stream
▁vigila
▁Mallorca
▁Jonathan
itou
▁mito
65)
▁Leer
quez
▁35%
▁vb
▁missa
▁Tug
▁noir
▁Unión
▁hạt
wini
▁.........
▁dras
▁Talent
buy
tax
rush
▁Franci
▁Omega
દર
229
cane
▁DOS
▁255
hova
corp
▁1992.
▁đèn
▁beginning
▁chợ
▁flow
▁meile
géné
▁atua
Mit
▁shum
▁cinque
iều
linis
▁Nico
▁ending
σσα
▁notar
▁postane
screen
▁loss
that
iding
delle
▁seeing
▁applications
▁Marvel
serve
▁talu
▁FREE
孝
inize
▁channel
▁NOT
▁vua
▁giết
▁clau
ffet
isena
▁UNA
▁Halu
▁Şah
▁laboratori
▁administrative
stoffer
▁gold
▁Penis
...........
▁rivi
▁Option
▁VW
▁corp
▁YE
amore
missi
venti
▁santa
▁erf
ZY
▁giàu
gott
mobile
usias
▁defender
▁Cristina
▁hề
▁jaga
▁solve
▁ej
▁license
▁judici
loom
▁vời
▁Raza
▁mày
▁Regul
▁imagin
ṇa
draw
▁Bureau
▁Franz
▁dõi
solve
VT
curso
▁klipp
trico
▁hotels
hrung
bella
▁bào
▁Mura
▁cake
legal
桂
▁Browser
▁desktop
tuba
▁middle
▁thread
xê
▁koron
▁Alka
▁167
▁deficit
▁paradis
șa
mona
frau
union
▁Vamos
▁VN
▁Mene
67)
▁Think
▁AMD
kumi
▁LRT
▁uredi
UAL
▁50.000
▁volunt
▁Pension
▁requisit
▁кризис
崇
▁melk
ionis
bash
▁morbi
уа
management
VAN
▁families
▁Alman
▁habilita
YI
▁Ziem
ography
ória
bladet
bury
diens
▁maximus
▁veit
▁Hed
▁menti
▁7000
▁teams
▁kayak
ARIA
SHO
▁bell
▁punk
▁seminari
cchio
ANZA
jörð
▁optimiza
wiel
▁2-4
什
▁mụn
▁posed
▁nacht
▁Forest
Ten
vito
balu
khabar
▁Only
pjes
arit
dymo
▁Tâm
▁₹
▁Denis
Bur
▁justice
▁NOS
▁dolores
▁Trust
▁provides
▁uspe
▁Bác
▁healthy
555
cerca
tono
▁Pf
gué
▁dw
edes
▁Zak
▁Posi
▁Change
▁minera
▁remove
▁Reci
WD
▁Communication
▁trứng
▁Allen
vika
▁throughout
▁trăm
trix
▁Stal
racht
fero
▁apertura
gros
▁dde
steiger
▁exigi
▁Rasul
▁Partei
Om
▁sổ
tress
hdin
brau
▁officia
situ
baut
▁viri
▁Sweet
▁administrat
▁Bú
▁gamma
schloss
▁peau
▁Eko
balan
▁Dho
impi
▁Tac
▁Sydney
ziq
▁Vậy
▁zava
▁COL
▁Hazrat
▁Tử
liance
bubu
hart
▁Vaj
▁facta
moda
▁True
▁Čech
novice
▁Вен
▁truly
▁nul
▁4%
▁Sein
▁Safari
▁trapp
location
isio
IMU
turer
まり
▁Observa
▁dole
tikas
kaji
▁Electronic
▁risorse
wear
▁Prix
▁Tax
menet
pong
▁aceite
▁Kings
instrument
▁capable
▁acea
oshi
▁fate
utili
ometr
▁panne
-05
▁二
OOD
▁Lehr
▁dual
nggang
▁Fantas
▁Muzik
▁Every
8000
ukra
▁Ferra
▁actos
▁Haki
▁plenty
Adresse
▁Aydın
▁preventiv
▁skel
tinio
DAT
mega
▁rop
▁sove
alaba
nab
▁infant
▁fece
▁chica
71)
▁engine
▁Qaz
▁Satan
wahl
Cap
trait
zidi
▁calendar
▁tù
▁hè
mäki
▁lova
▁wou
▁GDPR
▁Pand
hrani
▁feno
▁plage
zili
▁Sankt
innova
▁slipper
▁plakat
▁hool
▁seconde
▁Fuck
▁rabat
IBA
▁veritat
▁Hé
▁complementar
▁stadi
jobb
▁lidi
wort
▁bale
ENER
▁FU
macht
▁Pozna
▁gadget
▁madde
▁domes
▁Domine
▁surpriz
.............
priser
▁IQ
▁KAM
210
ichi
avec
74)
Internet
▁Saison
▁Libre
▁Français
▁ridic
▁Pasta
▁Arabia
IZA
▁174
▁Két
▁macar
▁jump
▁lili
▁okr
▁seren
Plus
mojo
▁Нор
sene
LEX
64)
▁BG
▁Huy
ချုပ်
▁viral
▁Stadium
▁sona
şehir
▁gehe
-02
isean
▁built
▁varen
▁trick
/19
▁frakt
phen
▁ziara
▁Minsk
▁Gener
▁solum
▁fungo
▁Groot
▁articula
cipit
dalo
NAR
▁MAL
hier
utis
▁Marathi
mood
drive
ίτη
▁Ful
112
▁Active
پٹ
íti
mür
▁fiu
▁ngôn
/05/20
444
▁veste
▁ferment
▁frank
▁REAL
barra
▁Kuma
▁Macron
RIT
LAK
ells
▁Quest
▁Freunde
ettes
culture
▁Erasmus
▁significant
சே
artig
▁wellness
therapie
▁bavi
▁puro
roko
üstü
▁Sales
60)
▁corpus
▁2016)
PART
09)
▁Defini
▁Wana
gradu
malle
▁sidder
pyt
135
▁venu
280
▁Wirtschafts
▁praeter
▁Tij
▁Hacı
▁Eel
▁calma
▁Detail
▁6-7
▁explicat
agam
獻
GD
▁peace
px
▁setter
▁DAS
▁Nato
suche
▁Riv
▁gê
▁Tous
pros
▁bestand
riza
dych
Sz
▁tasu
鐘
baha
ezer
▁boutique
paro
▁quantitat
▁Loc
volt
ISE
jamas
▁Hakim
▁Kura
▁Blut
marks
▁Vlada
▁kalu
▁Coll
▁Bela
▁2003,
MMA
▁balki
saken
lulu
GN
▁Norm
▁Vă
▁Shab
SIN
desmit
▁IB
matica
▁Cumhuriyet
rania
▁Odense
▁cứng
riji
riem
proces
紀
▁sabo
▁explore
▁FAR
▁dop
▁199
▁coro
▁lorg
▁2000,
▁Sare
490
▁victoria
▁Vou
▁pú
MX
emper
25)
GAL
▁Because
▁emotional
▁бригад
harmoni
otin
▁Dinas
feat
▁Lange
▁Servicio
▁Spiritu
▁poche
▁2013)
▁module
▁Reco
▁recrea
▁urgent
▁Romano
SW
▁Ander
ziga
▁Quick
nado
▁Giám
▁redact
▁sì
ột
lope
ushi
▁Uk
спу
BIT
ifique
▁Gòn
▁veterinar
▁Informations
▁hanc
▁Â
YB
▁Tập
pido
tool
”“
70)
▁Kirke
▁render
▁traditional
▁tùy
▁Koti
▁pand
▁Italian
ahidi
▁EI
litz
▁Dje
▁Misi
炮
▁Lac
▁carti
▁Malagasy
▁fresco
▁negra
▁Schön
▁rato
NEWS
▁politie
▁stole
SEO
bər
▁salvo
▁Virgin
▁BD
ozni
▁gắng
▁proposition
slova
▁junta
▁sog
Vil
shar
▁Hát
kande
▁odos
▁waiting
▁Dong
aeg
ïn
▁Panda
kış
trica
▁auki
Arti
▁họa
sust
▁Aq
▁chiếm
▁Schwarz
▁Morten
▁reasons
pyr
▁allar
▁tweet
▁Helena
▁Lúc
▁Salud
▁dure
algun
zino
09.20
klat
▁belles
▁cưới
▁Nielsen
▁KW
▁parmi
▁Corp
西安
▁Aina
ufa
▁relevan
▁Aar
▁felly
wada
▁Apps
obla
llab
▁Exam
▁König
DON
▁partners
6.000
LAB
▁passou
▁fully
▁Woo
▁licita
larna
lotte
▁TAL
utum
euses
▁tales
▁Jr
italia
坑
▁Ergo
▁lửa
▁kook
▁MG
thala
▁niềm
kleri
▁fieri
▁Menga
▁Mey
22)
▁mame
▁Leonardo
guar
▁Agenda
▁Bolo
▁Mies
▁Nutri
▁Hui
▁Mendi
▁0.0
▁Kör
▁participan
▁Sharma
strom
fore
▁Viol
urban
660
upu
▁Monster
▁focal
▁Advent
▁colpi
▁33.
▁Never
▁Bodi
▁Views
still
Fer
▁Yüksek
▁indonesia
▁chậm
bán
▁whatever
▁Què
▁lago
▁kion
▁distr
▁Vincent
▁173
bind
▁porter
cted
▁katu
setting
ssem
▁melding
▁Deutsch
▁ecco
40%
▁CEN
UTU
▁Polen
▁Blond
kreis
▁cielo
▁natus
trekk
INN
▁Stuttgart
▁Nhiều
▁musel
vette
▁messages
▁Records
▁Electric
▁Sne
cred
▁Dagbladet
knut
tsar
▁absolute
▁dậy
TIL
▁propagand
ctio
daug
bull
▁cais
▁excess
▁avo
▁Zv
▁Kanun
▁regla
ALU
atau
▁(32)
▁BM
▁Glad
▁Display
▁tường
▁Ronald
quat
▁Nazir
▁Dzie
uncu
▁diversa
▁selber
▁modest
zita
▁2,2
▁pese
▁ouvert
▁Gori
▁Laba
▁Kiri
▁Engine
gı
▁Tina
arth
event
▁FRA
▁halla
▁Poza
▁Kikwete
2]
▁Hace
▁Khách
▁soco
gaba
repet
▁Palo
▁Waren
▁Luther
ORO
▁lượt
▁xira
YD
approche
▁retire
▁ceno
kologi
▁strength
stamine
TAI
▁Orden
▁elin
▁Benz
India
▁gund
▁asema
rein
▁illis
bulu
祥
materi
▁bambino
▁dingin
RING
▁hà
cuba
▁affida
▁branche
▁multimedia
zeka
▁engagement
▁taste
▁dastur
▁upaya
▁Över
ecer
Ger
550
pien
▁Gand
yki
▁王
68)
STEM
▁podia
▁textu
hear
▁Tym
shti
bore
▁bolt
culis
翔
▁Philip
▁narsa
VET
▁Jessica
▁151
szki
lön
▁pute
▁voltam
▁shah
▁Sorry
isip
▁Official
▁Straße
▁Makedon
▁Vijay
trend
▁fett
▁Basta
tyl
▁Rut
▁IBM
▁planin
▁Ngô
eysa
gaga
RUS
▁Juha
▁lundi
▁negat
献
ūta
▁prani
kash
▁VOL
鳳
▁Doanh
▁Bho
zara
▁aperto
▁Zahl
Het
▁mature
▁tờ
▁192
▁Vuo
▁auditori
verband
▁ekte
qab
▁Elite
▁sông
sija
▁kerst
▁island
▁considered
▁Christen
▁banal
pico
▁Josip
ratta
▁ensam
datum
▁accessori
湾
▁Cần
▁ensuite
▁الرحمن
▁161
▁phóng
▁Location
▁finding
▁cuarto
▁suhu
▁alig
▁Biel
▁GL
▁Mash
tania
▁relativi
▁forget
wise
proba
▁Vega
льно
▁Mato
hero
rnir
XE
倉
▁Stok
▁tấm
▁mưa
▁souvenir
▁worry
▁Right
▁Toronto
▁levels
▁24/7
mít
racia
▁edifici
▁Deal
▁SB
mbangan
Van
IDI
stato
▁lemak
▁CNC
IZI
▁unica
chang
-2009
▁Gard
▁4-6
ğr
▁rano
▁shr
▁Kyl
▁americano
▁campos
▁IK
▁MAD
τρι
▁Imran
▁bw
▁Beau
▁retard
▁gitti
▁draga
25%
▁aime
▁neer
奴
▁impon
▁brought
trzy
hagen
▁reference
hengi
▁czer
▁meaning
▁lido
magi
telep
680
▁annonce
axi
▁cold
▁ALI
şik
▁Barcelo
▁Natale
▁aty
Gre
▁horizont
panel
naga
boni
▁cibo
▁Romani
▁đo
▁fallen
▁stelle
▁hej
sexual
bird
▁Daw
▁intention
▁cry
▁berak
WER
960
▁1907
▁ngan
▁zeit
boro
OME
▁tinc
▁sanhi
▁1901
itteen
▁wider
▁Wander
áns
fax
▁bonita
▁nest
▁Graf
▁toque
▁Ove
AKI
If
▁Ted
tería
pori
zice
pent
älä
▁Bất
▁Lisboa
▁Welcome
▁furt
▁Children
VAT
▁Flam
▁unig
▁Ā
▁protocol
▁Breaking
OOR
▁Loh
illé
▁victor
▁published
▁Programme
▁ngừng
POS
Eng
NEC
▁ligge
dimension
▁carica
mination
▁Rural
irg
aber
▁fasi
verdig
▁Liberal
▁episod
achat
▁postu
▁Apel
▁gull
RIE
▁Gym
fac
▁disposi
▁couleur
Yes
黎
انش
▁Hamar
▁Lever
▁victim
▁piscine
gö
quad
▁6.1
▁2018-2019
▁Hỗ
▁Sancti
kesk
NJ
vino
▁menda
rido
▁fons
▁Paolo
▁breed
tall
cimiento
▁tenger
ssie
jing
20,000
▁relations
diena
▁Doğu
pama
▁insulin
PORT
trage
▁venis
▁bạc
▁corsi
plikt
▁barba
Mod
▁Baik
▁Cura
hockey
▁Solidari
▁tabul
▁lắp
▁Iqbal
kaze
▁Chand
Hor
▁quorum
xente
▁Valor
-08
haber
▁Diet
▁Basic
string
▁Dara
▁LGBT
gib
kille
plass
adam
▁prad
▁redd
▁erum
▁tuba
orin
▁Moc
▁champ
▁spray
argi
▁Client
▁rules
▁lancer
▁6%
▁LLC
▁soka
kjær
▁delibera
▁binh
▁magni
näs
▁income
▁intellectu
▁hẳn
▁giọng
▁tĩnh
▁Aalborg
▁actuar
▁195
▁sequi
juta
lood
travel
ritza
▁essent
ιον
▁Juda
▁division
ridge
▁Clark
indre
▁KAT
tarra
32)
▁OC
achas
▁(31)
▁Adapt
LAG
▁UU
▁ISSN
▁civiliza
▁dab
udha
▁Skip
zaam
▁Integra
ijden
1.4
▁ventila
▁Menn
▁Год
▁replace
▁Wad
▁Aap
psu
▁Twin
▁torre
▁pudi
saba
▁garderob
▁Maret
▁kulan
▁xD
Win
▁Rica
▁predict
▁PAL
▁Harus
▁bụng
▁Utrecht
fusion
▁172
hiko
공사
sensi
▁Kapital
▁Cidade
pew
1.1
▁9.00
▁quiet
acce
Rus
▁margin
▁Stav
▁Gim
lerim
kainen
▁realize
▁horo
zsa
▁جنيه
▁augustus
▁Hyper
督
▁tantara
▁Luca
スター
▁pronuncia
▁sobra
▁Tall
▁rapidamente
▁nha
▁Sino
▁Murat
▁presentation
hida
▁Gib
▁medieval
▁French
▁комисс
▁corta
▁sklen
▁PAK
▁Matu
▁Tool
▁cherche
▁unang
▁Mika
ilish
Lie
GES
▁lower
▁182
▁Period
▁EH
unha
strik
▁neist
▁Brig
▁[6]
▁Tipp
▁gildi
▁Peda
ぬ
逸
Mil
▁Pali
▁Boz
Święt
endam
edat
arten
VL
▁Government
9/
▁Câ
▁Somali
▁Yun
▁Seni
NIE
▁Abo
▁Ane
sumi
▁biur
ticas
stille
▁goud
▁apne
TTA
▁filii
▁mitta
reiten
nelli
ULI
▁Lak
4,000
▁Galatasaray
▁LinkedIn
▁Campionat
ffo
▁reso
huile
▁XML
▁paroli
entur
▁questione
▁alimente
plate
HY
▁Kreis
▁simila
piti
▁LEO
birin
▁lumina
xl
▁Aile
▁suspect
SAM
nood
stall
▁Şer
mdan
▁Handy
▁lack
▁fide
Trøndelag
▁Manifest
▁bianco
tages
▁vat
11.2017
▁juntos
nadi
▁noto
▁เมือง
▁Sudan
TAK
beck
3,5
▁SHA
▁advert
then
▁Colle
soni
▁Response
▁privati
1⁄2
clin
▁Rafi
bilita
▁concentr
huri
▁assure
elia
ジェ
▁tp
▁Høj
tarian
▁doubt
▁đương
RIO
òng
UO
drow
▁Gwe
▁partage
XD
eyso
▁lando
▁Tomas
buti
▁players
▁sinua
racha
▁Barra
▁personaliza
▁fertil
YL
pré
unica
▁glori
▁wc
▁Pea
LOS
blement
▁Anni
▁advantage
▁weather
▁Avant
▁Fet
▁Import
zē
▁horror
gí
▁Brno
▁μορφή
▁Miks
▁melde
pisan
▁liệt
▁knows
▁Elect
worth
▁seres
▁túi
Ð
elwe
▁lái
bergs
▁disciplin
▁Thứ
▁adora
gler
▁soba
▁propriu
▁làn
tule
▁Bilbao
▁duyệt
▁Göz
▁(2009)
▁homines
▁Pip
UTI
provi
▁cận
Info
▁fruits
▁concede
▁Voll
▁sg
▁Punt
▁Saor
▁Cic
kule
▁conclusion
Ul
/01
▁employees
▁skar
▁HY
▁Heli
▁Kadın
glasi
Line
dimo
▁impone
▁talep
▁Frederik
▁rời
▁삼성
▁sade
▁Napa
▁Klasse
▁Balo
▁Marte
▁cinc
iskola
piri
▁officer
▁simile
UAR
ANY
▁Ella
löt
limit
ordine
▁Hod
bilo
orto
▁Traum
▁origen
▁aktie
▁repo
▁tens
raca
▁phase
▁spread
üst
bw
Hz
▁effects
gát
▁Đến
▁metabol
assemble
▁Río
▁Sarı
▁Cyber
▁lade
▁tabell
fuck
OLU
▁2017/2018
▁PDK
▁Numer
wezen
gangan
iseach
▁witte
▁Keli
▁tundi
▁riz
▁luu
▁haute
▁kept
vassa
hát
arren
▁boobs
▁escuela
▁pulsa
δώ
0.5
ZAR
▁famo
usap
168
efect
▁Soomaalida
▁leverer
▁Raa
▁shit
▁TRE
spire
”),
▁Domain
▁uxor
▁jutu
1,000
▁Bhe
慈
▁Friedrich
▁lugn
▁đệ
puti
株式会社
ajai
▁exprima
▁TB
9,5
▁Pek
▁efficient
▁brenn
fair
▁FS
▁bền
▁prega
prise
cultural
▁2559
tiere
▁reddit
iện
sakan
▁BIL
▁pami
▁yere
75)
SAS
edici
▁Vasco
▁Phạm
▁khắp
▁Ủy
▁Đặc
▁escal
▁azaz
lanti
ndolo
mên
rious
▁Rece
iame
79)
kás
▁Hệ
▁SMA
DAH
▁cobra
▁Indo
▁elv
▁Fis
vento
▁perso
Rip
esimo
sell
olan
KIR
▁dinner
health
bizi
follow
▁Mesa
▁Performance
▁Margaret
celler
▁Tx
BOX
klass
▁tombol
later
▁Rick
▁kháng
▁Willie
▁Kristi
inai
▁neil
▁Gwa
▁sentimento
▁Athen
▁tutul
▁Sasa
TIR
▁Ita
▁seconds
▁piele
randi
nuk
▁Barna
奏
celi
isque
▁phạt
▁terrible
▁impi
hore
▁mười
▁Bayram
▁Neka
▁HAL
▁nemoc
levi
LAM
▁levan
▁chal
▁lặng
/2004
▁Vlade
▁cyber
▁fibra
▁Nói
▁208
▁Lauren
xor
▁Kaka
range
bureau
▁fruct
prin
pher
andina
▁mergi
▁antra
▁Veg
HAM
▁accusa
▁supérieur
▁territoire
▁Subject
▁Tec
çü
ngkang
▁Ster
reden
▁Awam
▁+2
THA
330
quid
▁Deb
▁KG
Respons
▁Potem
▁Qatar
▁groups
▁regenera
غاز
!),
▁finit
▁marked
melo
STU
abot
▁robh
walk
▁boji
▁Habe
hausen
ikli
▁Maca
▁Mahal
▁Metall
▁kivi
▁sententia
▁laugh
▁Gew
▁biar
▁TRI
STR
▁Pisa
Cal
ckel
Blog
haga
▁Financi
▁fanat
▁36.
▁ASV
▁Darbo
YP
gym
▁Gaga
▁Meny
THI
▁Fiz
tratto
édé
PRE
Land
▁Barba
▁khối
▁kassa
▁Chị
▁Domingo
▁Hamilton
▁naturel
▁Ning
▁Ramón
▁sita
▁Race
▁Eid
▁slip
▁nastal
▁Kiể
▁Immer
▁tief
▁Future
quar
▁Cí
▁kiya
culus
▁Konto
igos
ganj
Press
▁darbs
OSA
genti
▁firem
ouverture
▁incontra
▁smar
▁turbo
▁Kiam
pasti
kiya
wiec
guma
▁siècle
▁19:30
▁Anthony
▁majo
▁Screen
Office
▁(2008)
upload
▁cid
▁Deum
ARS
▁slave
steller
▁dhal
▁stoppe
▁connection
▁tente
TEM
”).
▁Rii
KES
▁kite
laze
▁vistas
toko
▁Linna
music
sys
halli
▁compact
kran
▁ganga
HER
BAL
LOV
▁teach
▁Aleks
▁Bruxelles
▁Arka
▁Yay
▁formen
▁coloro
▁Dama
μοι
▁1909
avance
knop
franc
▁9001
▁invers
▁underbar
thir
▁vang
▁Rada
ndru
8.00
▁prive
huga
▁370
▁divina
▁khuôn
▁nô
▁Kelly
クロ
▁morti
▁Babu
▁Yek
▁(100
▁performa
▁Hep
dhal
▁parallel
▁residencia
▁MEG
▁componente
춘
▁testosteron
▁perhaps
▁Mukh
▁Murah
▁npr
[14]
WW
▁rối
▁volant
NIN
rían
dzo
▁maki
Bet
▁pedal
▁€.
centra
▁Oper
inot
▁Wieder
▁spada
ASAN
impresa
ուհի
▁dimensione
▁Numa
qli
▁finis
▁eremu
▁farin
▁TY
▁participant
▁duc
▁contine
bić
スタ
bér
▁tắm
▁carretera
▁Niko
▁appropriate
▁Wellness
▁violence
project
▁Karo
samba
importe
▁junge
puna
▁trama
▁apro
disi
▁coste
onica
kopp
▁verti
▁instituto
▁Geç
▁Dö
▁Glass
▁rami
Kas
esco
MIT
bato
▁postura
▁Toko
▁tiver
resse
ược
EZA
▁Budget
▁Eduardo
▁kram
▁ake
▁assign
▁category
▁stiri
ufu
▁SHI
▁dvig
▁Puis
fabrik
▁suci
▁Entra
step
▁8%
ofon
▁distant
URL
ewski
patri
▁penn
▁wear
▁poso
▁fewn
ngwa
▁nõ
寿
▁Phan
▁Alzheimer
jist
utilise
▁Fai
▁Clinic
▁hogar
▁daro
▁basso
bagi
▁Lili
▁Saka
mash
funa
▁thê
▁fortes
stress
VAS
▁Kirche
▁Kine
cross
▁septembri
ulum
heu
lips
▁march
▁ambiti
▁Tila
▁Sain
▁Giz
stamme
▁occ
▁cli
▁bros
▁Porr
▁rendu
▁professionelle
▁ramas
▁Björn
▁Mahmud
▁playa
▁Mell
▁audience
ATAN
31)
pangan
HQ
▁klap
halla
▁perdi
▁PSOE
▁divas
UJ
▁Solid
▁30.000
▁Outra
COS
▁industrie
KEL
dane
nag
rix
rapan
▁провинци
▁hải
hallin
بیر
▁tivo
ahli
abka
▁Glen
▁sover
▁Literatur
▁multitud
umise
pant
ODA
kossa
Yu
IGH
scono
iumi
▁novice
pire
▁Zuma
▁barbar
chip
FTA
manan
▁hazi
mobi
▁Grey
▁horta
▁galing
india
ήρ
Qui
仪
▁Finger
▁Kodu
▁ammo
▁Extrem
▁thy
ayso
ALAM
345
kesi
▁muller
▁chic
▁offline
▁Pove
▁Cristiano
▁Dva
▁billion
laps
▁Org
GUN
▁Vele
▁angin
▁river
▁comma
▁Ghar
▁Lenin
▁Elev
LEI
▁quadri
▁Hawk
▁rouge
▁1990.
ullo
▁Sunda
▁GD
▁CAD
mese
▁Jennifer
▁Ricardo
▁Row
▁ngại
بيل
▁tic
▁Carolina
illion
bisa
čnik
▁Hl
puli
give
kriti
▁Dome
▁Gue
▁happens
▁Alto
ayya
▁Ono
▁hohen
isla
baka
diamo
mons
▁Kub
▁Zug
▁penser
董
▁Kolle
▁Afri
▁hầu
▁studies
▁Szeged
▁Lauf
▁yum
▁brod
▁previous
▁urbana
▁compro
▁transmet
3]
nella
▁detect
▁Ô
▁rara
▁Mev
▁Uganda
▁bia
▁ringe
▁Seb
▁Financial
gamos
tengah
▁novac
HEN
▁poser
nevad
mised
▁Norr
ğan
Sub
urken
IVE
▁Баш
TAT
juna
▁dựa
坡
▁Wilhelm
▁Éireann
▁kilde
▁cim
PRESS
▁variety
▁credito
▁Pensa
...............
shit
▁essen
▁stir
▁Ibn
▁GSM
hnen
▁Dach
utti
student
▁verge
ўна
lavo
▁buenas
▁Lur
潘
▁علمي
rawan
▁requirements
▁rappel
▁chili
▁Utiliza
▁complicat
▁nỗi
▁Death
▁examina
1200
▁Bass
▁Fix
▁random
▁convert
trou
író
▁Gabi
nienie
▁pagine
historie
LINK
rami
▁ergonomi
▁Stars
▁corto
pending
慧
mby
▁Nghệ
▁includes
kwi
▁dixe
▁burn
▁salaam
▁Dublin
▁Stadion
▁genitori
▁koks
▁rabi
▁Gero
▁domino
▁denar
paran
▁1906
▁cure
ELSE
▁1904
dori
tesa
▁Massa
bomb
▁Siti
▁blonde
▁christ
▁Galli
nkt
BRI
bone
▁Artes
▁cheese
▁Conte
▁BAS
▁silang
bilitate
丘
Este
▁Tuesday
111
▁devis
▁Juk
▁prosi
▁Carta
verkehr
uud
▁Qab
▁Bem
▁sume
Play
1980
婆
▁Kuba
▁Virus
빈
▁Razak
▁arany
miya
▁recoll
▁glaube
cser
3.1
▁Agra
saran
▁badu
Day
vráti
▁yin
▁SOM
▁iris
▁prono
▁Ammo
▁loh
һ
▁Zoom
▁rửa
▁mechi
ppt
szen
▁Liam
▁monitoring
Wal
70%
▁plod
▁Loe
▁Moll
▁dimensi
▁inventar
liana
▁kles
▁fecit
pies
Fun
▁Lider
▁Mex
▁Bike
002
▁substanc
▁lulus
▁sources
▁risi
samo
▁Pă
solid
/25
▁Archive
▁Days
州市
▁Tradition
verde
▁Insel
▁plural
▁KT
Stra
▁envia
▁Kapit
▁populares
▁xera
trie
▁Rhod
divi
▁possibili
▁Universitas
▁predik
▁calci
▁kalp
▁aute
Lab
▁toen
▁learned
ruti
▁apta
▁222
▁ell
▁Tê
▁Hic
▁Maq
▁Potom
▁mejora
▁barco
▁rege
hira
▁Sovet
Shabaab
▁tavo
▁klage
centes
▁ngực
▁Gob
-03
260
▁graves
▁boost
▁economie
/02
igna
▁fondu
▁banque
▁retorn
▁Hut
▁171
DIA
hatha
▁Nime
▁Junta
▁goreng
ONAL
▁5.2
ssero
▁blas
▁fritt
▁tunc
騎
▁exclusive
▁ló
▁(2007)
▁3-0
engage
▁kalendar
ecko
SCH
▁Luke
matto
▁Cré
▁phái
▁Present
▁gruppen
Black
▁exe
▁douce
▁Mladi
uwi
▁imita
▁estate
kvar
▁Jaume
▁13.00
▁chances
翼
▁Naud
▁galt
.10.2017
▁accesso
natt
▁hua
torium
▁šā
伏
pean
Jun
stati
▁rente
▁commerce
rimit
▁Pene
▁sabia
▁bail
brig
▁mundi
▁bags
önü
▁sàng
▁Dasar
▁Beşiktaş
▁citron
▁incontro
▁Voz
▁agents
RIM
▁gey
▁Mě
▁3500
▁2:1
▁Sampai
aldea
tinga
▁pixel
▁[-]
hagi
▁grin
zazi
▁selfie
▁Concert
simme
▁JK
AUS
▁Rast
slava
▁cuti
▁Arkiv
▁Welle
哲
CAT
NGU
▁Infos
יִ
▁sudar
▁dirigi
▁Poste
▁litteratur
▁Maks
▁knap
▁0,7
conta
鳴
▁Bora
▁Kasi
isseur
▁VÀ
▁outdoor
▁1995.
▁Religion
▁1.500
▁equipment
▁REC
▁Sava
▁package
▁cultiva
PAS
▁towards
▁gunung
gola
▁aard
▁fes
▁gamme
▁290
▁vermi
▁endi
▁Kaffee
▁alga
scape
▁Cumar
自治
europa
▁alimentar
ww
▁1970-
▁Jel
▁ropa
▁TN
▁Kolo
ksyon
▁false
▁memory
▁Restaurants
hinder
temperatur
BOL
▁Nordic
▁salu
blis
YON
şen
▁Sacra
▁compila
stap
fem
▁Kova
▁besig
▁describe
▁motivation
امين
▁pep
John
▁viver
TELE
jevi
郑
havi
▁DF
▁Viking
▁garbi
ruc
▁Each
▁avanti
▁compete
▁steps
▁kitchen
▁Tampere
▁Luís
▁Chy
▁Sür
▁Declara
▁manger
▁sopi
anada
▁tender
lumina
SSI
▁7%
FORM
mahan
▁1996.
▁Zul
▁nomes
▁centar
FD
▁mét
▁moving
mida
中华
▁garam
icae
▁1997.
▁Ceza
▁berda
▁MOD
▁Visu
▁Sándor
▁Pérez
▁Aceh
▁Grün
entrepreneur
EVER
▁Semana
DRE
▁SON
▁Visit
solut
stens
▁tract
jeno
▁muscular
▁viven
PAC
cego
▁Napi
Tor
TIC
MBA
▁ương
maton
▁hảo
▁selve
▁european
▁telt
match
▁noter
▁Passe
▁Toni
dame
rating
▁colegi
リア
▁germana
▁corporal
lapan
▁Football
▁changed
rera
▁Arusha
mpuan
▁Jubil
▁revolution
reif
▁rito
▁grind
▁messo
▁Italy
▁Ivo
19)
▁reviews
proof
▁rich
▁Volume
▁Explo
▁Lego
▁scandal
▁remarc
▁helpful
▁Arif
local
▁gazeta
▁remind
rocz
Che
▁executa
▁бетон
▁2012)
▁formy
▁Fenerbahçe
▁kịp
▁Palau
232
rigo
▁psy
▁ngược
csé
▁dessert
visible
GK
almi
▁lauda
▁Singapura
▁Alban
▁Gad
▁niyo
▁Johnny
▁peine
▁processus
saam
industri
▁futura
txu
▁Geri
▁cock
zán
insu
▁Sogn
▁Lex
ROD
▁initiative
▁Raf
poka
bound
▁medico
▁Hopp
▁sóng
▁complexe
▁ticket
Ụ
▁riso
▁10:30
▁easier
▁Kemi
▁heavy
uscita
▁maine
NICA
▁Bahar
▁Burger
▁included
▁frum
▁diagnose
▁Gök
shad
vaart
▁OCH
▁MF
▁diep
▁omega
ql
▁ahead
bieg
▁strop
▁Bhai
▁Tuli
780
▁LOS
Sie
1945
▁pastel
▁Diabetes
▁Truyền
utha
tunni
odaw
▁dày
▁Tham
chine
太阳
▁Nelson
▁Very
guan
hā
▁indre
▁naturales
▁bintang
▁passant
▁Battle
▁campi
▁12%
▁Erde
▁Beng
ards
▁Imper
▁monar
race
laust
▁1.9
uthu
▁Position
green
▁Clara
▁Okt
▁Andy
FAN
▁mitten
iero
bate
▁Ndi
salon
▁Baden
▁dick
chtung
▁flora
▁fry
9,00
▁croc
parent
▁nood
▁moyenne
▁UTC
▁taler
▁Siku
▁Noch
▁Lumi
loch
▁Zy
abri
urb
ayu
▁alti
▁representativ
▁landi
▁philosophi
ologische
▁podcast
▁olymp
▁obsta
▁lagen
▁metalli
▁magia
▁satellit
▁Klu
kelia
cionit
▁romance
ANE
▁đê
▁legume
▁Pár
▁Yamaha
▁existent
▁alim
▁differenti
▁Estudi
ឥ
▁strategic
▁elf
rund
hila
pale
iewe
ples
Europe
hydrat
tempor
▁Alexandr
▁captura
▁tuyên
▁Dolor
▁Irland
terem
XII
stander
▁shared
▁drago
▁MALAYSIA
ntul
INTA
▁hygien
▁ill
▁putu
▁ostrov
▁Maksu
▁Soul
▁Lyon
ören
▁Νε
CAN
▁natal
▁Boer
▁amani
▁funny
▁socialist
batu
▁Evi
▁SAR
řez
mbé
▁Same
▁kris
▁ôm
▁Hug
0.0
merci
▁thác
▁cute
▁fabul
lule
▁LL
diniz
▁GMT
WORLD
Ổ
▁Tayyip
▁residu
sorge
▁Kamis
▁ALT
▁Punjabi
▁skirting
sense
ective
held
TD
akty
▁mB
▁hakka
▁Muchas
velo
▁manana
▁courant
▁terram
▁telugu
▁Ware
badan
▁Profi
cok
▁Ulla
▁tranz
▁understanding
▁cresce
kauf
trú
▁booking
▁zame
▁Dona
▁Eso
ganti
jaks
elect
LEM
▁196
▁Gunung
▁Sharif
jour
Photo
▁planu
▁filia
이스
urun
Organ
▁Tommy
this
▁watching
▁RF
Hay
brid
▁intuitiv
keel
▁trendy
ingia
▁lanse
▁jaj
▁Bakar
liches
▁lover
▁elite
▁PAT
▁Uhuru
iệu
▁Đình
▁cabinet
▁Obi
▁dị
▁métier
▁Mug
▁Agung
▁filtra
▁Yana
masis
▁taman
▁ngàn
▁Biologi
gelig
90%
optim
▁1890
▁cục
▁licet
▁Fau
▁Pelo
jag
yut
▁gune
▁Vom
bios
View
ovine
▁Gür
▁gly
▁shin
▁termino
▁juris
mbal
▁society
▁became
▁PLAN
Islam
▁diverso
▁américain
▁obligat
▁Cando
▁Донецьк
▁masculin
▁Terror
▁maddi
▁Bour
▁insult
▁WP
fanta
Actual
▁Balaton
poser
▁ukrain
Kam
770
cours
Los
▁Dân
▁Wys
hér
▁Fier
algo
▁CAT
RAV
▁Toh
▁supply
DJ
▁kilometri
▁Claus
loon
▁Sector
▁Wilson
▁Caso
pisco
klep
▁Holand
▁Kön
▁chảy
▁montant
entie
integra
tiae
sites
Continu
▁numera
▁giun
qur
▁afro
▁3-1
▁reais
vag
BAS
▁Thay
▁KN
▁Kế
15%
マー
▁Products
rosi
fone
დუ
▁adelante
▁coaching
▁Cameron
▁(2006)
erend
▁Гур
▁Oor
▁kokia
▁disturb
▁MON
▁sella
kuse
▁nợ
▁1.7
ITT
▁440
▁gói
ảng
▁Host
▁hein
▁DH
▁baho
▁Basi
▁filmy
cés
▁rull
▁Sylv
▁Dalma
▁DNS
▁Pä
chair
▁littera
1981
DRA
01)
▁181
▁midis
▁Peta
▁Jersey
▁Laptop
▁automatic
▁Consejo
▁Technic
▁Pemba
▁livres
gandi
▁Mount
▁Steam
▁sisa
▁mùi
▁opinia
agost
▁Hop
▁soup
▁prison
▁bath
▁sugar
▁switch
kval
aring
▁dừng
▁suomi
▁Diesel
▁abuz
zdu
▁mountain
QS
trus
▁promenad
lipat
▁Cana
blar
▁Ofte
trina
▁Roja
sunod
▁vagas
▁SN
▁Ngài
▁0,8
▁birthday
reglu
zentrum
athair
▁gmin
▁proprietari
▁stala
▁Meni
bulan
▁guitar
árd
евіч
inscription
▁Dul
▁selten
NAP
▁Gry
▁rase
▁vapor
pron
▁African
ův
exposition
▁troll
▁Tree
duci
spiegel
mpung
▁formes
▁Quân
▁hing
▁Absolut
Mor
▁Palestina
▁espa
Team
willig
▁genetic
HAS
▁probable
HV
▁dosis
iate
faka
proti
02)
▁SG
Jag
▁Hade
rath
beat
▁brasil
▁brend
▁Sole
▁blanco
▁Nhi
▁Debe
▁folks
jci
▁Zavod
▁numerosi
▁Tutto
peda
▁telle
▁kaise
lander
Không
▁dubi
edifici
▁đảng
▁thẻ
▁confronti
▁retail
Jes
▁Cú
▁falt
orri
▁kick
▁2014)
ğü
▁divide
▁arriver
padlo
▁Georgi
ombra
statt
99)
▁mãn
▁Bier
▁lalo
SSE
▁magnitud
▁Nano
MIA
SAL
▁Jeff
eien
application
裕
▁proposer
▁kodi
▁LR
▁signifi
▁Hyderabad
▁Sánchez
▁cocktail
▁polyester
▁probar
▁football
▁Dêr
▁janeiro
▁interface
▁Ibnu
▁passiv
▁Gwen
▁kumi
▁barabara
▁exclusiv
▁owner
▁friendly
▁Does
namn
285
▁Medan
▁convention
36)
gane
▁Baar
chová
jili
▁Kek
▁Mole
▁Valo
▁keto
78)
ibles
▁tush
▁Mamma
▁PhD
sborg
FB
IFI
▁sio
zê
▁passare
Tôi
苗
pler
▁Pí
▁providing
▁lifestyle
▁Adolf
▁206
ERC
SPA
▁cursa
▁thema
▁interroga
▁numbers
▁Brief
▁Intr
▁noon
▁Nazionale
wienie
Claude
chron
/04
kW
▁Ernest
▁VIS
▁Buda
▁Eden
▁intrig
gach
▁Tên
▁Alami
▁salsa
0.1
suar
▁overfor
▁dekabr
2-3
▁saran
▁wann
▁corti
▁rain
gitur
BH
▁lieber
nyol
szeg
▁Trek
Ơ
▁Afganistan
▁18:30
1.0
▁Genç
▁Sparta
AQ
▁Germany
▁quanti
▁Zach
ovec
▁Racing
▁gjet
▁files
▁linja
legra
▁wp
▁pime
▁Luar
ICS
▁Hlav
▁Operation
▁oldi
HAY
ometer
▁Turbo
cair
▁bữa
ပြည်နယ်
▁Enterprise
oeuvre
▁Middle
nawi
▁rừng
▁555
Film
▁minni
777
▁vết
NOM
▁blow
▁fx
▁Republica
▁delegat
▁Sept
▁portas
▁rese
LUS
▁stip
▁الدر
listan
▁dominio
▁Haq
▁viagra
QU
▁codice
▁scio
▁Russian
akit
patan
renta
IPO
▁merce
▁Cristian
遥
▁Kaup
▁Lise
▁excited
piro
produc
bber
▁cúi
▁synty
▁veli
▁Suh
POR
▁incat
▁Üks
▁Focus
obs
▁SEB
vík
wg
▁romano
▁moden
▁Friends
Aus
▁pesos
▁Mater
6,000
▁Jenny
ゼ
▁Vlad
▁Katar
▁renom
▁contin
GW
▁dolce
LAI
skild
retten
▁Liz
tiger
▁1°
Sol
▁Gábor
▁Miller
▁Suzuki
▁Sohn
▁Inde
▁hạng
▁Laga
▁afrika
liny
▁snabb
▁tragi
aysa
Associazione
hild
▁veld
nomo
▁Confe
▁kape
▁Ponti
▁sounds
▁INTE
▁Letras
▁4.4
▁dahi
kosa
▁Moro
▁laboro
▁negu
KAI
ranse
▁idol
▁Virtu
lending
▁Avenue
3.6
steach
▁responsible
▁giận
inky
▁Grace
WY
+)
ARTE
▁Marcus
eremo
balo
drome
▁platit
lainn
▁APK
frage
▁policies
▁Wada
▁Gute
▁Sofi
unnar
▁motif
▁primari
▁fascina
▁cosmetic
▁Palla
ways
▁palestra
▁xương
▁although
Form
▁falan
stod
▁Unite
▁toalet
▁champion
sagen
▁Lauri
協力
gueira
▁Maps
▁promise
JM
▁Tiene
▁odds
▁Llo
▁hurt
tape
▁Svart
▁pipi
▁bonnes
288
oslav
▁bende
zaki
PLE
▁affair
▁douche
haar
mahal
▁khoá
▁born
ility
▁bottom
▁Malin
istele
▁Lorenzo
machine
▁Kanna
▁eleven
▁Brut
▁Pinang
▁orbit
▁Kund
OMO
ướng
▁Fue
▁Spy
lunga
▁PAG
astro
▁highly
▁Avis
▁Sli
▁2015)
americana
▁Rabu
▁engin
▁SPD
istin
▁fifa
Open
administra
▁Vatican
▁bege
▁Agency
▁Mic
altı
▁Freund
▁Number
▁JI
▁Spider
▁investitor
▁frequent
wasa
▁IPL
corso
lesen
▁kenne
▁Dave
HIT
▁tệ
▁Taba
▁programs
▁UEA
owicz
▁sting
trí
▁hayata
▁papu
ỳ
▁phu
▁cơm
中山
▁inveni
gâ
▁Mangeshkar
gán
▁Sheikh
▁activity
▁nagka
▁dead
▁Φιλ
▁pattern
▁piazza
▁SSL
▁portato
▁Suc
vrij
▁impun
▁yame
IoT
iyaa
zain
ưởng
▁Magazin
▁Pomp
▁khóc
▁resolve
慕
▁Thursday
▁Thần
bayan
▁Czech
marketing
▁Cem
▁insect
logie
▁batterie
▁Produc
▁Ró
▁actua
LAY
▁pedagogi
321
▁1994.
▁sàn
▁standa
▁district
▁Stephan
etate
umbi
loqui
RAI
▁Monet
ampu
▁overal
▁Duna
▁madeira
▁Elektr
▁peor
▁commis
ljon
龄
▁gắn
gelt
Mü
▁tienda
▁prosp
▁propag
▁Tomáš
▁Library
▁liturgi
▁wisi
Shirt
▁2001,
▁Fredrik
▁Koch
▁jug
▁arki
▁conclude
▁Ivana
▁Sura
▁discover
ovce
ồ
loca
▁bej
▁Mostar
▁Alternative
LX
plak
GAS
115
▁5.0
cidos
▁Willem
ulio
mandla
▁Marius
▁hors
yanı
▁silent
▁Leta
▁thé
▁Cass
aura
▁Norwegian
▁Mahathir
▁Lát
cide
▁empleo
thana
355
-06
▁karma
▁tủ
▁holding
▁concours
▁BUR
teret
zato
▁Javier
▁Полу
ERN
▁pils
▁тун
▁hamma
▁Davis
MED
vlje
▁wow
▁Pest
Tro
riba
UTE
gnu
raith
▁Bilet
▁EXP
alp
hơ
▁puzzle
▁wallpaper
Bri
▁Señor
▁Kerala
▁Muze
▁sessions
▁Sug
dón
ILLA
theater
▁Lop
▁policial
▁throw
▁Raad
▁senator
▁Samu
天使
▁235
▁3.4
fortuna
–1
270
▁Hostel
vore
▁soare
▁strid
▁rinne
▁Bulgaria
▁palo
▁Teresa
▁Vän
OTT
▁Eis
▁Guarda
385
▁Joka
▁publication
▁Theme
▁religiosa
▁Oost
burgo
▁syl
▁magad
studie
ndhu
uesi
encontre
▁Kill
▁thang
▁Gift
▁secretar
▁Spal
gyr
▁agri
▁Kupa
Sel
▁Kuru
▁lue
hula
lapis
tamina
lift
▁voici
treba
▁ubica
▁cơn
Nem
gî
480
▁isole
▁Won
▁registrar
linder
▁Ferrol
▁herre
tellen
ÍT
▁hjärta
▁comfortable
▁trông
▁panorami
chester
ZK
halle
▁Mayor
глу
▁sitte
▁DDR
▁Bayi
5,6
very
▁solide
779
▁patrimoni
............
▁Titul
RAF
ljev
▁tuis
▁bikini
▁urge
▁dorm
kevin
▁hospitali
▁Lup
ramento
Pay
Love
▁trio
▁Trí
bax
▁Szo
▁Augustin
▁189
vill
EDE
賢
▁Exchange
▁thoải
▁Zub
▁Berri
▁Tume
shib
▁Fish
▁querido
baga
▁phó
Lib
▁betur
conto
▁Regina
▁vegetal
▁constata
▁desire
▁6-8
4.5
▁Ian
▁Zapo
▁krag
▁humo
fungu
TIV
▁helped
孟
▁Privacy
▁2018/2019
▁Building
▁Application
▁vineri
▁tạp
▁Reading
▁(31
huni
▁Skar
▁lesbian
▁colors
▁Weil
meel
-2008
▁ISIS
Power
resh
980
▁PRIM
▁MEL
▁Rapid
▁gospod
adres
▁Andrei
sprache
elwa
mees
▁dimensioni
▁Cruise
▁barem
laban
▁BEL
apuram
▁SAS
▁BIO
▁Karnataka
▁Cambridge
▁Calendar
▁Albi
▁Culture
▁Sonne
▁Luiz
▁216
brev
▁Mặc
▁®
sitz
evski
register
▁leading
Jul
▁evening
moodi
▁Ask
▁Kawa
▁participation
▁Cambodia
▁creating
burn
▁directly
ôr
▁Institution
▁Loka
depend
ORT
estero
▁genetik
vagn
▁Pub
gwa
▁flirt
Cam
▁versa
▁Analyse
▁lamba
壽
banan
▁mord
▁Tog
kring
▁servit
duto
installation
▁topo
▁Messe
support
boks
▁rapi
Gen
▁Conform
jord
▁indian
banda
▁275
▁cardio
zogen
esque
motion
▁novu
joy
▁counter
▁река
▁Fans
▁Swi
▁americana
▁Letter
▁Tada
▁Leik
▁Sax
sedia
▁peculiar
▁Alonso
▁(2004)
▁fugit
▁justifi
▁Small
edett
▁WWW
▁Kilo
grama
/2005
▁discuta
▁padu
▁lieben
▁Marcos
▁Shaq
▁999
Settings
skum
CV
▁catch
▁(35)
▁Puu
233
rari
▁Blood
▁30-40
▁feminist
▁ribo
ガー
▁Ła
kivi
▁profiler
▁copa
070
SKU
EAN
▁Koro
xido
▁Uppsala
▁etern
▁barato
plot
ylab
▁historic
skade
shoot
Cũng
iñas
▁(33)
▁diplomati
▁stau
386
MAP
▁mold
▁reporter
wawa
▁depression
HAL
▁surge
▁prestation
fok
▁ware
rić
▁opo
▁cycle
▁Diễn
▁Emmanuel
▁irregular
PIS
▁sutra
tese
▁located
üne
▁prompt
▁potente
▁Schon
▁pira
Tal
▁gwel
cznik
▁Zelen
▁escorts
anter
▁growing
▁mando
dogo
▁bedel
▁baze
▁enjoyed
▁Tiru
▁equal
▁recita
▁malih
▁Konya
pilot
▁MBA
▁montre
hasa
▁kurus
▁Juo
▁scale
▁stets
109
▁developer
▁jaman
heart
▁Route
GOS
▁performant
▁Tö
▁Trailer
▁encam
udur
▁Đoàn
▁Although
▁babu
▁FF
▁salto
▁Arna
feed
Dom
▁Switch
OVER
▁filles
pidi
▁203
▁penca
▁scenario
▁compagnie
▁homma
mmende
▁VPN
sjö
Poli
▁parim
▁Warga
pate
▁crucial
▁Conf
judi
▁diverti
ilua
▁Grim
gesellschaft
hiz
▁Netz
▁absol
▁sperm
üzü
霜
▁Mọi
meet
▁Carte
domo
▁204
▁unten
▁fake
certa
▁Coast
▁lông
▁calme
▁videtur
pö
▁Fight
ietis
▁Compl
latan
Tai
▁contou
▁1903
occasione
duce
▁Xer
-2000
▁STAR
clip
▁Jugo
▁dizze
▁metres
▁sange
▁188
Una
peal
茂
▁gutt
1970
▁shoot
buli
▁melo
▁confronta
LAV
▁ultime
legge
▁CAM
▁Chuo
▁particularly
▁dóm
ovac
état
▁calcio
▁gases
▁Pasar
▁stamp
▁Sér
▁wad
bö
▁Flat
▁salvar
klick
patti
▁1993.
▁Neft
drama
ebant
▁recolle
▁Kér
▁preti
▁nghèo
▁incredibil
▁meum
▁Feature
▁Uh
▁2010)
▁Pessoa
logist
▁Kip
▁Marke
▁စစ်
▁sinto
▁Đào
Hal
▁vibr
harga
quilla
▁Mao
▁agreement
jadi
▁CHO
LON
▁foco
KIM
▁halve
silo
baad
▁Olin
ilee
blom
▁1960-
Ut
▁Interna
▁massive
▁Đề
▁potenti
▁Salman
▁Kỹ
▁demonstrat
▁Tanda
▁metre
trud
KOR
▁church
aître
▁centenar
▁Asus
qaba
▁Herre
boom
▁UC
vanda
▁entendre
ỗi
ISK
£
OPE
therapy
▁huur
▁Roberts
▁Pogo
▁Penal
▁necessitat
▁Reforma
▁argu
▁trụ
4°
▁Combi
niece
▁jackpot
▁thước
▁Rug
▁indis
▁allowed
▁Helm
langa
▁respective
▁Volt
▁oficina
▁regidor
PUN
carna
3.2
association
▁fete
▁Yok
▁decret
▁Rover
▁chap
ILO
▁XD
▁basit
cake
曹
▁tight
▁maya
▁Harvard
▁ulit
▁Byt
▁Double
dél
▁tàn
▁Apollo
▁Administrator
▁Francesc
Kol
▁DV
▁consumer
▁sce
▁finalist
/03
WM
▁obses
▁Ką
cih
▁blues
TUM
▁Carne
▁rumor
▁Moy
LIT
▁aiki
仮
▁tạm
▁beyond
ingum
krem
▁Heilige
▁Adria
IQ
▁virgin
1989
▁prestigio
▁mollit
rumah
▁genus
▁Drago
▁Saman
sportiv
dagar
▁tamu
given
gramm
▁aware
dress
▁10-12
fulde
xal
▁primaria
▁tankar
Fan
ağ
▁suerte
▁lemon
▁ells
▁dj
▁Neuro
▁supplement
▁fiducia
Cho
▁Pavi
dauer
kinga
▁organic
▁animi
cult
▁Twee
▁móc
Game
▁Sevilla
DET
▁Gmail
▁kisa
▁rabatt
akhir
▁shoh
LIC
trap
▁Влади
▁vag
▁rong
▁Mida
▁architect
▁Picha
▁Bilbo
ÊN
▁preced
Ì
▁Bjørn
▁bậc
▁tán
▁Finns
▁input
▁Nuestro
VOR
▁crai
▁0.1
▁ryk
ALO
▁Nafarroako
▁corner
Wat
lance
▁Otel
▁Ciao
▁Cyr
690
hotell
▁PRODU
buku
▁bibir
desi
purna
▁LAS
▁Bharat
berger
▁capitol
perin
▁refere
▁membran
ABI
/0
85)
▁siksi
▁Pó
▁zion
▁Dress
▁opportunities
▁العزيز
▁Evan
▁scopul
▁spir
▁agentes
BUS
▁moro
8.5
laud
▁Flora
▁Install
▁welcher
▁historio
rzew
▁expertise
diplom
▁85%
▁Kier
▁gă
▁Pê
poste
▁Kadar
95)
▁kalte
▁207
square
WN
▁Coba
▁tissu
PRES
ύρα
▁Herren
▁listy
▁Hanna
▁wine
degi
owska
▁Mrs
▁ettir
▁Leipzig
▁khủng
▁ebook
▁fees
▁giường
▁Prova
▁Homepage
deal
▁mbaya
▁сказ
dilo
▁alterna
Comp
▁kirim
kammer
▁vocal
accesso
▁Kone
▁Chang
▁kosong
▁Sło
▁snow
Count
▁Trag
▁agita
uros
brak
▁Perso
▁ovi
GEL
Work
372
▁Rê
Ros
鼎
hef
▁Breakfast
▁17:30
zdr
▁sứ
▁Dewi
▁9000
Tom
▁Musical
educa
igual
ukus
YY
/30
▁Shell
▁Zeitung
4,7
CONT
▁AMB
SSR
▁feria
▁Fina
Fra
statu
▁agenti
▁Princess
範
▁INC
▁Świe
▁Alterna
▁Path
▁Республика
▁Ngu
▁Pariz
kapi
碧
Ể
▁đòi
▁chiffre
▁Timbalan
centa
▁fructe
▁lyn
90)
▁Juma
▁Dieu
▁socia
▁Francesco
GIN
GIF
salu
▁Ramadhan
▁sinistra
▁manna
haki
▁dược
▁Adana
▁producer
▁hole
mentum
WIN
▁Hua
fler
▁Seine
▁RTV
▁kauli
▁Hahaha
▁Chá
▁cesti
03)
▁lady
▁Garda
leef
670
▁Bekas
fê
▁visibili
▁Barre
schaffen
▁concur
ńska
▁fb
▁charm
▁voluptas
ISU
▁mortis
▁calda
▁strel
▁formou
▁Jiří
iyak
▁Gratul
▁Adidas
tronic
fear
▁gole
▁Tura
▁Valentine
▁dependent
▁lood
▁22:00
-32
▁Boli
▁masala
▁TK
▁apple
sunt
servi
▁Dhan
▁musicale
▁layout
LEK
▁conscient
brat
porto
▁Små
▁finaliza
122
▁Peugeot
▁academic
▁conference
▁12:30
IUS
▁businesses
ūz
huan
60%
▁Ernst
▁gasto
▁hovor
▁Kola
MH
▁Valeri
▁gadi
▁1,9
▁intense
gumi
▁Constit
▁musu
uttu
▁ct
MAIL
▁pression
▁appear
▁gigante
beba
▁Neil
save
▁subtil
CER
nedd
memor
BAH
NUM
▁CONS
Studi
▁Steel
Рус
▁Manila
▁steroid
穆
▁skok
▁Dragnea
▁dissi
dzy
antic
▁Julius
ACI
▁Martina
▁trib
▁bô
▁moved
▁GEN
▁góc
Club
▁metas
ncé
espace
08)
média
▁Masuk
▁Kaba
850
mesa
▁voe
▁fiber
KW
▁tenu
▁faith
HIR
▁Quote
angle
UGU
▁Otra
anlage
▁tubig
elda
▁Aval
▁RFE
▁Eldre
96)
momo
mung
njaka
habita
▁Ká
陵
EIN
▁willing
▁earth
▁Hyundai
portu
emplo
▁immediately
▁5-7
▁estus
1988
▁ultimo
▁Solutions
▁imperial
UMI
amara
▁Reality
340
Korea
▁versie
▁fabric
▁Ditt
▁Holl
deck
▁Unga
▁fils
▁8-10
▁Economi
▁Yuk
▁Iki
▁handla
▁Principal
▁wood
nacional
▁Maison
VOV
▁Toy
▁Fala
▁goals
▁Vodafone
galan
▁20:30
burger
▁Nicolae
ongea
making
▁Dala
▁cabal
ındır
posita
▁vitamine
turing
▁miste
▁Iya
▁Capit
▁sabes
option
124
▁Dz
▁PEM
▁yah
▁pantalon
▁gede
▁Piotr
▁Practic
▁Nauk
ological
7,5
▁Tahu
ières
pair
rota
▁nominal
▁cuir
jandi
▁hagi
massage
▁Mặt
cık
▁Pacific
▁corona
▁Yara
▁alin
▁prospect
cessit
▁spate
▁Bratislav
▁intru
tinho
▁islami
tavasti
▁akva
▁Laden
▁aprendi
▁Harald
ạnh
▁macho
▁Progres
▁blau
▁faculta
▁suave
▁MAH
ühl
▁havo
誌
▁Algo
▁freundlich
▁Mozilla
prema
ENTI
▁armat
▁contrari
▁hodi
▁scherm
▁meal
▁tests
▁ship
entium
зах
▁0,4
▁Syr
▁MEDI
▁venne
▁anyway
▁Manga
stoel
▁Cái
WAT
▁1880
ZAK
▁dilu
3.7
▁tomat
▁digni
yör
▁Raw
▁novog
owca
▁fissa
thin
卓
▁Ảnh
▁Coffee
▁Dortmund
▁Indica
▁sacrifici
fullt
▁Tantra
▁volen
▁Bueno
photography
▁00:00
ANDO
▁trait
▁Kera
▁armoni
▁Elisabeth
ional
▁mẽ
▁tendance
▁alimentari
ysta
366
▁latino
06)
▁xinh
shika
▁posnet
▁Again
めた
ziti
urada
760
-1)
▁Sergio
▁Gill
▁Reve
TICA
▁Monica
▁thỏa
▁printer
▁obstante
▁attract
geschichte
▁survey
▁cook
āva
dary
üyü
▁trial
RCA
▁đáo
▁dessus
▁alert
gence
mium
Well
Note
/2003
▁Giao
boka
▁Chart
LEA
▁LTE
▁matcher
▁skit
eficient
▁anser
▁gutter
eanu
▁Grant
▁Blok
▁Bä
▁quantum
Tá
pato
ぞ
soy
▁scilicet
▁Bloomberg
シン
▁Krem
▁possibilitat
▁mò
▁TIME
▁dobe
▁nearly
ONO
▁instance
▁Izan
▁mv
▁brevi
▁chips
▁stanna
surf
▁lana
▁[[
▁Mandal
ĐT
tuki
luka
▁satur
▁Adult
ovník
▁palla
▁Atlas
Best
tekin
▁Presta
▁netti
gly
▁PLA
▁foreign
▁Vše
ollywood
03.20
▁Gusti
guem
▁complement
will
ろう
cso
▁Dubrovnik
▁temple
▁flexible
▁Mister
▁earlier
▁ngài
haver
▁Milliy
▁lepi
▁horre
▁Indra
NOW
248
▁Tsu
ời
CHO
aaaa
▁Haec
▁rar
▁korri
▁Wand
gún
ıt
RIC
▁Cà
▁Exc
filtr
▁stupid
rinda
▁oly
▁214
太平洋
▁espiritual
▁Osijek
asset
▁belav
▁patch
▁inquit
▁froid
▁pesta
▁Padre
▁template
ERIA
▁galleri
▁assassin
▁lied
▁2,0
▁Kreml
klubben
serta
▁moms
giai
▁tinta
mely
▁favorable
raigh
HIN
hant
▁sustine
▁Manual
▁dinh
▁bany
▁OFF
▁SNS
▁zait
▁indult
raju
880
▁usi
ÍA
朴
玄
葛
▁titt
▁Süleyman
▁quotidian
▁Tisch
explo
▁habitants
ève
▁brani
▁λ
tenta
▁Sahi
▁Pixel
▁SUR
oskop
▁Mire
7000
▁intende
▁premiers
▁taula
▁Nueva
▁thả
koro
▁Ehe
▁leggi
PEL
▁lọc
bale
▁Tiên
▁SUB
▁BAT
▁manage
Pie
▁zoom
▁Markus
▁pangan
▁xứ
čice
80)
▁mesele
dhani
▁reportage
▁Nossa
ministri
▁Hiru
哀
▁thầu
▁tắt
▁Comic
▁Universiteit
▁YPG
Test
119
▁maximal
▁dizaine
appelle
foga
Brit
▁Ekstra
EW
brin
meria
▁spins
▁tè
▁Accept
JUM
wege
▁Bota
▁LTD
tsua
▁Norman
ÓN
AREN
▁pemb
▁safar
zene
▁Kanad
activa
mouth
▁gospodin
▁Tapa
▁sayo
ège
▁directeur
▁bp
erien
▁Nasa
▁Varia
▁UI
▁Initiative
▁Allgemein
▁economy
▁aide
▁Jura
▁temen
▁extremely
quadra
▁peta
DOR
ramos
▁terzo
▁pored
▁CZ
▁nhàng
▁Adams
EKA
▁NHL
▁HCM
▁rifle
▁Estra
▁experimenta
▁imperator
pub
evit
▁postar
stien
find
▁DHE
▁Dhaka
▁Stick
ragan
pakan
▁loan
▁alian
▁grov
▁intervento
▁Emilia
▁horse
▁Monde
xie
▁revision
▁secure
▁Çek
Din
▁indicati
anović
▁voler
▁plain
[15]
▁Martínez
▁perdita
inami
▁CRM
dering
Bab
▁carb
▁paprika
▁tân
▁``
landes
JAR
▁suprem
▁tumi
▁macro
▁Banca
▁Contr
▁Tím
▁Mú
gey
uerit
▁Oskar
itty
ādē
▁skle
▁valin
▁202
\\\\
SING
▁hobi
▁Kemp
▁serb
wong
▁Desta
zola
▁2,7
etc
▁italian
▁lân
91)
堵
▁lẫn
▁Bologna
▁genuin
▁extension
▁geheim
▁Pha
▁Edgar
▁allez
▁Rash
▁1870
▁Staff
▁telesa
▁rammer
▁dvora
▁confess
▁emotion
▁fitte
solo
▁reta
▁prices
dell
URS
gab
στρο
duit
04)
▁Thom
Prin
ixin
tragen
▁Dende
TIE
shirts
cité
lipo
▁gấp
▁nắng
▁Argument
▁swo
▁hiển
▁reglement
GIS
âne
▁loạt
▁ribe
▁đâ
▁Hatta
summa
absence
▁Chun
-34
gyan
▁remis
▁domy
▁sonde
39)
▁vase
▁sanit
▁(36)
zər
▁Halle
▁làng
KSI
▁Okay
▁Petter
▁medicament
▁Bruce
вард
actual
▁apartado
▁Jus
▁desto
▁640
▁paus
▁Ciri
▁Bởi
▁copyright
prod
JAM
▁liberi
▁Lodge
▁partita
CIE
▁FK
▁bahis
▁Basha
venire
NBA
▁helps
▁solito
▁skur
▁chw
▁eventuali
▁2016-2017
▁skill
▁blaen
▁hunc
omia
▁Moses
▁nodi
Kun
▁Hungari
▁325
าะ
▁dates
rozi
▁Alde
▁Astra
▁213
jata
▁Unge
▁Omar
▁pum
▁Txi
188
▁paint
▁Neve
järvi
▁filio
praz
logen
ptic
▁Boeing
▁ủy
PRI
7.000
▁Popis
JT
foi
十九
▁Bibi
raud
positie
▁Parce
▁Horizon
Forum
▁matrimoni
Sky
▁Eger
▁tulle
robot
▁movement
▁totally
▁supr
mpet
ARU
8,000
▁takkan
▁Insa
ionem
▁211
▁delito
▁XS
godi
▁played
▁traumat
▁512
MAZ
extra
▁thổ
▁hija
▁sugu
▁compatibil
▁Xây
▁Stel
▁jurist
▁Viel
▁entri
▁qind
▁gawa
07)
▁hoef
▁pust
▁1.2.
▁leger
▁Woman
▁Boys
dulla
▁Religi
▁rooms
▁Jule
▁tendenci
▁simpli
dóttir
▁pots
86)
waga
▁Giro
▁Crime
▁titulu
barat
-55
▁BK
▁bhai
ísima
▁Julio
▁Tết
▁950
▁Güney
▁304
▁klop
▁Hitz
hlad
pusti
▁Caixa
▁fiel
▁Table
▁esperanto
▁tagged
▁Vatan
▁mouth
▁flight
▁Surf
▁(38)
Sil
puma
▁Kimi
access
▁urat
▁Join
▁obtain
▁distribution
▁amico
▁Goran
VES
▁locum
▁spoke
▁commencer
▁masturba
▁dron
▁facit
glad
1950
VENT
▁Bear
▁powerful
▁Abel
83)
▁Shakespeare
▁Napoleon
▁xưa
▁Somos
moral
▁Monument
levering
▁Complex
waj
▁prol
prenant
pice
▁promotor
▁Şey
▁khoán
▁Bạch
adapt
▁spes
grim
▁generos
▁NEM
▁Tex
Hol
387
▁filosof
▁Diva
020
▁CMS
▁representant
halo
folie
anayo
▁asking
jevo
pande
▁Compar
jine
▁Imi
▁eure
▁Kommer
ovci
bøl
▁Llobregat
▁nhấn
Microsoft
messu
sikia
▁Jimmy
▁Investi
▁Statut
▁Teu
▁fauna
▁HOT
▁Paşa
kutan
TG
Mai
▁Psy
▁bâ
ouche
▁intervention
wide
▁servidor
Bor
▁Kav
▁mux
▁Mercado
▁chào
▁Farg
▁hybrid
hiq
▁Cannes
▁AIDS
issimum
▁procure
▁ESO
Cola
▁evo
▁Apartment
lén
▁193
▁kerap
▁Biên
orio
mudi
▁ulic
نار
▁kêu
▁nộp
▁Polici
▁hinge
ulet
▁Energe
brott
▁causes
▁xx
▁Cerc
▁presidi
wka
TAM
▁guda
▁jugu
itinerari
Mes
▁sugan
ECE
▁Pili
▁Čern
▁cite
ritur
▁Atas
▁latte
▁malaysia
▁fleur
▁reported
▁ulu
pest
▁esot
▁taq
ANCE
pania
▁Scu
▁ONG
linie
敦
▁conosce
▁Michelle
▁Beyond
▁Orbán
▁Belarus
▁lovely
▁strategy
▁phrase
▁Magistr
sexuell
cicli
▁keram
▁dasturi
▁Mehdi
ruoka
▁rapat
EMP
▁Arap
legger
▁situations
Pad
▁obje
▁chlo
telling
Log
▁television
▁Torres
▁maty
hán
▁pong
▁0,6
makers
▁sister
bira
▁ordon
฿
▁Bahçe
▁lệnh
▁Current
134
saṃ
▁tỉ
▁custom
lberg
▁eleme
bamba
▁mệt
▁imaginar
▁analysis
boken
▁indicat
▁contributo
▁species
hlut
▁Fay
モン
izace
▁impress
▁Spania
▁kors
ằng
roku
▁Slut
animation
▁Enna
▁Johanna
▁older
Code
armen
▁Termo
▁parco
medicin
豊
▁Tòa
▁valet
▁Piazza
▁Đi
▁Acht
▁Torna
▁Himmel
▁diel
▁bitter
▁gương
▁ripa
▁Tumi
▁Petrus
hamn
▁Learning
▁diari
▁Taxi
▁(40
pand
レイ
▁Nebo
popular
első
cream
▁partizan
pesi
▁toner
▁Malah
torp
guli
▁Push
▁hmm
▁Christopher
▁Provincial
▁updates
▁Dual
▁Ziya
▁mulier
iyev
krim
▁Retro
alamu
▁strange
▁cable
▁Dw
▁Senti
▁HAI
hoof
DSL
lipa
辰
▁fee
▁smartphones
kult
▁édition
▁Eurovision
hafte
▁protesto
▁Keb
zag
TIA
▁PLUS
▁durable
▁estrella
Blue
▁cuina
▁Lung
▁zati
financ
▁Veter
▁Risk
▁Noël
▁Abe
wein
pais
▁prepare
▁Profit
▁xay
▁Kartu
▁afar
MAL
▁Isaac
undur
▁MEDIA
▁Bogu
prime
Ég
qada
mics
▁mouse
▁Bumi
potent
▁Isra
Ini
▁Mats
wish
▁appen
▁Mulai
fact
8°
▁Alþingi
▁poesía
▁Conference
riat
▁lối
kolle
▁Iceland
▁(40)
ร่าง
▁Cir
rescu
ECT
digi
▁referent
▁KV
▁ong
▁430
▁Moder
▁Gou
▁feta
▁hacker
illy
▁Analys
thik
▁allows
setti
▁Artur
MAG
▁Blom
enii
sev
3°
▁IPS
ministr
▁Nagu
▁Arad
shes
▁Febr
▁factores
▁tràn
▁grunt
▁kokio
▁default
▁minimi
onio
Mini
720
▁chì
▁Knight
viste
485
▁termes
belah
▁Nils
▁Wakati
▁venire
▁Dora
▁Fantasy
aiky
▁thôn
357
brief
ragu
▁Rs
▁Nora
Paul
sever
▁inject
▁Mwa
▁Straf
cipe
▁militari
WR
▁seemed
▁Walk
Stream
▁François
▁Psycholog
centre
▁otot
▁cesto
▁passed
▁Aran
umist
bedi
about
chain
潭
▁fantasy
▁Matthew
▁ANO
▁cv
UCH
▁cruce
paru
▁Wilt
4-1
CAM
▁Karel
gido
▁pande
belle
▁breg
▁TVA
▁schools
▁Mother
▁llo
▁(34)
▁Creo
▁mardi
KING
▁Tp
▁strap
117
737
▁JP
▁2,6
▁entrepren
▁PES
▁1902
▁45%
applique
▁messa
▁Pune
▁Lara
▁decisions
▁tablets
▁juge
▁Kasu
▁Filem
▁obez
▁circular
▁Nhận
▁Metropolitan
▁euskaldun
▁registrera
▁7.1
▁silver
▁beer
▁الجمهورية
▁Väst
▁falu
City
anstalt
▁Podemos
klai
▁Venezia
▁Vivo
▁estive
LOT
▁Stran
▁kampe
4.6
ょ
▁Abon
131
XXX
veta
▁paine
ecido
▁gaus
UPA
shah
klage
ÀN
▁sef
RSS
▁soviet
▁Tsar
▁Safe
▁Maine
▁Drei
cogni
▁Pär
lampa
▁LEGO
▁sāku
▁periculo
▁hideg
▁flink
reck
ugur
▁amator
▁brede
▁Kaap
barth
овский
▁tong
leit
▁Katiba
▁shape
▁profilo
▁Tě
pagina
▁usual
OGA
1-1
TEA
Sho
▁Hend
That
▁Sağ
▁behe
punk
▁Anita
▁Căn
▁Katrin
öhn
▁Independent
▁models
沢
foss
▁Laboratori
▁Chuyên
haku
SIK
▁Fatih
▁broker
▁absolutely
safe
▁stretch
▁starosti
▁factum
▁Possi
▁Khalid
▁Abba
▁Storm
▁दाम
▁panto
▁Demi
▁puja
▁records
▁palli
▁sursa
īr
suke
mandi
CIN
▁jury
▁carros
OKA
▁Nicolas
▁Rif
▁Sett
▁Piano
▁norr
▁boys
▁Bam
▁advise
fragen
▁invasi
▁Evet
▁Sejarah
▁Phường
▁Sicilia
dzes
▁Ministeri
bolo
▁ghế
▁Terma
stance
▁ดาว
▁upgrade
OKO
fill
mitten
impl
▁priori
▁6.5
▁adults
Mos
▁fugi
▁Vụ
▁boto
mír
internet
ICK
coop
▁osto
lanta
▁Loren
pach
▁777
▁lucra
1984
▁Salg
ヨ
▁lita
▁sovit
▁transplant
▁Jaro
HAND
▁Hắn
▁campagna
▁vườn
▁zebra
▁Youth
oral
▁tổn
▁courage
ÉP
▁Traba
▁Another
ặt
sakit
▁Casal
▁Eş
▁touche
pija
▁chua
▁chart
▁etape
locat
▁Ponta
▁filan
▁lâm
existence
▁2008)
Alb
118
▁military
▁Estonia
FAT
97)
santa
▁indirect
▁vendor
▁SDP
yolu
▁Yemen
▁litre
WAS
▁naiv
▁Vital
342
▁ripo
AKT
▁container
▁lầm
▁Seura
▁Yılmaz
▁Gleich
arrière
▁gumi
▁Quam
▁speech
▁machines
stolen
▁Yanga
▁Comedy
279
Master
▁kuki
▁2,1
▁Attila
Sex
▁crack
▁Prepara
44)
nički
ENTER
▁calm
4,8
Austr
ūru
▁chiaro
2.4
113
▁Kela
▁gair
▁Blues
arius
▁pike
▁frontal
▁taglia
▁Islamic
▁Filo
▁200.000
▁robe
▁crazy
▁Francisc
λία
▁hào
▁Mood
590
▁prezo
▁Grecia
▁Tiếng
▁Boha
▁Quiz
▁Avia
▁sny
Luc
▁Dekh
filmer
EVE
▁băng
▁glade
▁trink
▁midden
ilun
▁460
▁hopp
haug
pít
NIH
SERV
▁reception
▁visione
▁Relation
▁1396
▁pkt
zsák
Ing
▁marginal
▁2011)
imli
Bon
▁mắn
▁Nairobi
▁Ubuntu
▁danke
PAD
▁immers
▁astronomi
▁ema
▁geli
▁Suu
▁vidim
There
IÊN
▁Karne
▁Mush
[...]
